#pragma once
#include <Arduino.h>
#include <tensorflow-runtime-universal.h>

#ifdef __has_attribute
#define HAVE_ATTRIBUTE(x) __has_attribute(x)
#else
#define HAVE_ATTRIBUTE(x) 0
#endif
#if HAVE_ATTRIBUTE(aligned) || (defined(__GNUC__) && !defined(__clang__))
#define DATA_ALIGN_ATTRIBUTE __attribute__((aligned(4)))
#else
#define DATA_ALIGN_ATTRIBUTE
#endif

namespace tinyml4all {
    template<size_t tensorArenaSize>
    class LSTM {
        public:
            const size_t numInputs = 750;
            const size_t numOutputs = 4;
            const size_t numOps = 22;
            

            const Model *model;
            MicroMutableOpResolver<22> resolver;
            MicroInterpreter *interpreter;
            TfLiteTensor *in;
            TfLiteTensor *out;
            uint8_t arena[tensorArenaSize];
            float outputs[4];
            float confidence;
            String label;

            /**
             * Constructor
             */
            LSTM() :
                model(nullptr),
                interpreter(nullptr),
                in(nullptr),
                out(nullptr),
                label(""),
                _registered(false),
                _error("") {

                for (uint8_t i = 0; i < numOutputs; i++)
                    outputs[i] = 0;
            }

            /**
             * Test if model failed
             */
            inline bool failed() {
                return _error.length() > 0;
            }

            /**
             * Get error message
             */
            inline String error() {
                return _error;
            }

            /**
             * Test if input is float
             */
            inline bool isFloatInput() const {
                return in->type == kTfLiteFloat32;
            }

            /**
             * Test if input is int8
             */
            inline bool isInt8Input() const {
                return in->type == kTfLiteInt8;
            }

            /**
             * Test if output is float
             */
            inline bool isFloatOutput() const {
                return out->type == kTfLiteFloat32;
            }

            /**
             * Test if output is int8
             */
            inline bool isInt8Output() const {
                return out->type == kTfLiteInt8;
            }

            /**
             * Get i-th output
             */
            float output(uint16_t i = 0) {
                if (outputs == NULL || i >= numOutputs)
                    return sqrt(-1);

                return outputs[i];
            }

            /**
             * Init model
             */
            bool begin() {
                registerOps();
                model = tflite::GetModel(data);

                if (model->version() != TFLITE_SCHEMA_VERSION)
                    return fail(String("Model version mismatch. Expected ") + TFLITE_SCHEMA_VERSION + ", got " + model->version());

                interpreter = tf::newInterpreter<22>(&resolver, model, arena, tensorArenaSize);

                if (interpreter->AllocateTensors() != kTfLiteOk)
                    return fail("AllocateTensors() failed");

                in = interpreter->input(0);
                out = interpreter->output(0);

                if (!isFloatInput() && !isInt8Input())
                    return fail("Only float and int8 inputs are supported");

                if (!isFloatOutput() && !isInt8Output())
                    return fail("Only float and int8 outputs are supported");

                return fail();
            }

            /**
             * Predict float input
             */
            bool predict(float *x) {
                const float inputScale = in->params.scale;
                const float inputOffset = in->params.zero_point;
                const float outputScale = out->params.scale;
                const float outputOffset = out->params.zero_point;

                if (model == nullptr && !begin())
                    return false;

                if (failed())
                    return false;

                // set (quantized) input
                if (isFloatInput())
                  for (uint16_t i = 0; i < numInputs; i++)
                      in->data.f[i] = x[i];
                else
                  for (uint16_t i = 0; i < numInputs; i++)
                      in->data.int8[i] = static_cast<int8_t>(x[i] / inputScale + inputOffset);

                if (interpreter->Invoke() != kTfLiteOk)
                    return fail("Invoke() failed");

                // get (quantized) output
                if (isFloatOutput())
                    for (uint16_t i = 0; i < numOutputs; i++)
                      outputs[i] = out->data.int8[i];
                else
                  for (uint16_t i = 0; i < numOutputs; i++)
                      outputs[i] = ((float) out->data.int8[i] - outputOffset) * outputScale;

                getClassificationResult();

                return fail();
            }

            /**
             * Predict int8 input
             */
            bool predict(int8_t *x) {
                const float inputScale = in->params.scale;
                const float inputOffset = in->params.zero_point;
                const float outputScale = out->params.scale;
                const float outputOffset = out->params.zero_point;

                if (model == nullptr && !begin())
                    return false;

                if (failed())
                    return false;

                // set (quantized) input
                if (isFloatInput())
                  for (uint16_t i = 0; i < numInputs; i++)
                      in->data.f[i] = x[i];
                else
                  for (uint16_t i = 0; i < numInputs; i++)
                      in->data.int8[i] = static_cast<int8_t>(x[i] / inputScale + inputOffset);

                if (interpreter->Invoke() != kTfLiteOk)
                    return fail("Invoke() failed");

                // get (quantized) output
                if (isFloatOutput())
                    for (uint16_t i = 0; i < numOutputs; i++)
                      outputs[i] = out->data.int8[i];
                else
                  for (uint16_t i = 0; i < numOutputs; i++)
                      outputs[i] = ((float) out->data.int8[i] - outputOffset) * outputScale;

                getClassificationResult();

                return fail();
            }

            /**
             * Convert results to String for debug
             */
            String outputsAsString() {
              String result = "";
              result.reserve(numOutputs * 6);

              for (int i = 0; i < numOutputs; i++) {
                if (i > 0)
                  result += ", ";

                result += outputs[i];
              }

              return result;
            }

        protected:
            bool _registered;
            String _error;

            /**
             * Register ops in resolver
             */
            void registerOps() {
                if (_registered)
                    return;

                resolver.AddTanh();
                resolver.AddStridedSlice();
                resolver.AddRelu();
                resolver.AddWhile();
                resolver.AddShape();
                resolver.AddAdd();
                resolver.AddMul();
                resolver.AddQuantize();
                resolver.AddTranspose();
                resolver.AddGather();
                resolver.AddFill();
                resolver.AddMaximum();
                resolver.AddConcatenation();
                resolver.AddUnidirectionalSequenceLSTM();
                resolver.AddReshape();
                resolver.AddSlice();
                resolver.AddSplit();
                resolver.AddPack();
                resolver.AddLess();
                resolver.AddMinimum();
                resolver.AddSoftmax();
                resolver.AddDequantize();
                
                _registered = true;
            }

            /**
             * Set error message, if any
             */
            bool fail(String message = "") {
                _error = message;

                // return true if error is empty (success)
                return _error.length() == 0;
            }

            /**
             * If classification, get most probable class
             */
            void getClassificationResult() {
                if (numOutputs < 2)
                    return;

                confidence = outputs[0];
                uint8_t ix = 0;

                for (uint16_t i = 1; i < numOutputs; i++) {
                    if (outputs[i] > confidence) {
                        ix = i;
                        confidence = outputs[i];
                    }
                }

                
                    label = String(ix);
                
            }

            const unsigned char data[295852] DATA_ALIGN_ATTRIBUTE = { 0x1c, 0x00, 0x00, 0x00, 0x54, 0x46, 0x4c, 0x33, 0x14, 0x00, 0x20, 0x00, 0x1c, 0x00, 0x18, 0x00, 0x14, 0x00, 0x10, 0x00, 0x0c, 0x00, 0x00, 0x00, 0x08, 0x00, 0x04, 0x00, 0x14, 0x00, 0x00, 0x00, 0x1c, 0x00, 0x00, 0x00, 0x80, 0x00, 0x00, 0x00, 0xd8, 0x00, 0x00, 0x00, 0x70, 0x4b, 0x00, 0x00, 0x80, 0x4b, 0x00, 0x00, 0xdc, 0x82, 0x04, 0x00, 0x03, 0x00, 0x00, 0x00, 0x01, 0x00, 0x00, 0x00, 0x04, 0x00, 0x00, 0x00, 0xf2, 0x6c, 0xfe, 0xff, 0x0c, 0x00, 0x00, 0x00, 0x1c, 0x00, 0x00, 0x00, 0x3c, 0x00, 0x00, 0x00, 0x0f, 0x00, 0x00, 0x00, 0x73, 0x65, 0x72, 0x76, 0x69, 0x6e, 0x67, 0x5f, 0x64, 0x65, 0x66, 0x61, 0x75, 0x6c, 0x74, 0x00, 0x01, 0x00, 0x00, 0x00, 0x04, 0x00, 0x00, 0x00, 0x9c, 0xff, 0xff, 0xff, 0xd2, 0x08, 0x00, 0x00, 0x04, 0x00, 0x00, 0x00, 0x08, 0x00, 0x00, 0x00, 0x6f, 0x75, 0x74, 0x70, 0x75, 0x74, 0x5f, 0x30, 0x00, 0x00, 0x00, 0x00, 0x01, 0x00, 0x00, 0x00, 0x04, 0x00, 0x00, 0x00, 0x7a, 0x6c, 0xfe, 0xff, 0x04, 0x00, 0x00, 0x00, 0x01, 0x00, 0x00, 0x00, 0x78, 0x00, 0x00, 0x00, 0x02, 0x00, 0x00, 0x00, 0x34, 0x00, 0x00, 0x00, 0x04, 0x00, 0x00, 0x00, 0xdc, 0xff, 0xff, 0xff, 0xd5, 0x08, 0x00, 0x00, 0x04, 0x00, 0x00, 0x00, 0x13, 0x00, 0x00, 0x00, 0x43, 0x4f, 0x4e, 0x56, 0x45, 0x52, 0x53, 0x49, 0x4f, 0x4e, 0x5f, 0x4d, 0x45, 0x54, 0x41, 0x44, 0x41, 0x54, 0x41, 0x00, 0x08, 0x00, 0x0c, 0x00, 0x08, 0x00, 0x04, 0x00, 0x08, 0x00, 0x00, 0x00, 0xd4, 0x08, 0x00, 0x00, 0x04, 0x00, 0x00, 0x00, 0x13, 0x00, 0x00, 0x00, 0x6d, 0x69, 0x6e, 0x5f, 0x72, 0x75, 0x6e, 0x74, 0x69, 0x6d, 0x65, 0x5f, 0x76, 0x65, 0x72, 0x73, 0x69, 0x6f, 0x6e, 0x00, 0xd6, 0x08, 0x00, 0x00, 0x94, 0x4a, 0x00, 0x00, 0x8c, 0x4a, 0x00, 0x00, 0x70, 0x4a, 0x00, 0x00, 0x50, 0x4a, 0x00, 0x00, 0x3c, 0x4a, 0x00, 0x00, 0x1c, 0x4a, 0x00, 0x00, 0xcc, 0x49, 0x00, 0x00, 0x3c, 0x48, 0x00, 0x00, 0x2c, 0x47, 0x00, 0x00, 0xdc, 0x46, 0x00, 0x00, 0xd4, 0x46, 0x00, 0x00, 0xcc, 0x46, 0x00, 0x00, 0xc4, 0x46, 0x00, 0x00, 0xbc, 0x46, 0x00, 0x00, 0xb4, 0x46, 0x00, 0x00, 0xac, 0x46, 0x00, 0x00, 0xa4, 0x46, 0x00, 0x00, 0x9c, 0x46, 0x00, 0x00, 0x94, 0x46, 0x00, 0x00, 0x8c, 0x46, 0x00, 0x00, 0x84, 0x46, 0x00, 0x00, 0x7c, 0x46, 0x00, 0x00, 0x74, 0x46, 0x00, 0x00, 0x6c, 0x46, 0x00, 0x00, 0x64, 0x46, 0x00, 0x00, 0x5c, 0x46, 0x00, 0x00, 0x54, 0x46, 0x00, 0x00, 0x4c, 0x46, 0x00, 0x00, 0x44, 0x46, 0x00, 0x00, 0x3c, 0x46, 0x00, 0x00, 0x34, 0x46, 0x00, 0x00, 0x2c, 0x46, 0x00, 0x00, 0x24, 0x46, 0x00, 0x00, 0x1c, 0x46, 0x00, 0x00, 0x14, 0x46, 0x00, 0x00, 0x0c, 0x46, 0x00, 0x00, 0x04, 0x46, 0x00, 0x00, 0xfc, 0x45, 0x00, 0x00, 0xf4, 0x45, 0x00, 0x00, 0xec, 0x45, 0x00, 0x00, 0xe4, 0x45, 0x00, 0x00, 0xdc, 0x45, 0x00, 0x00, 0xd4, 0x45, 0x00, 0x00, 0xcc, 0x45, 0x00, 0x00, 0xc4, 0x45, 0x00, 0x00, 0xbc, 0x45, 0x00, 0x00, 0xb4, 0x45, 0x00, 0x00, 0xac, 0x45, 0x00, 0x00, 0xa4, 0x45, 0x00, 0x00, 0x9c, 0x45, 0x00, 0x00, 0x94, 0x45, 0x00, 0x00, 0x8c, 0x45, 0x00, 0x00, 0x84, 0x45, 0x00, 0x00, 0x7c, 0x45, 0x00, 0x00, 0x74, 0x45, 0x00, 0x00, 0x6c, 0x45, 0x00, 0x00, 0x64, 0x45, 0x00, 0x00, 0x5c, 0x45, 0x00, 0x00, 0x54, 0x45, 0x00, 0x00, 0x4c, 0x45, 0x00, 0x00, 0x44, 0x45, 0x00, 0x00, 0x3c, 0x45, 0x00, 0x00, 0x34, 0x45, 0x00, 0x00, 0x2c, 0x45, 0x00, 0x00, 0x24, 0x45, 0x00, 0x00, 0x1c, 0x45, 0x00, 0x00, 0x14, 0x45, 0x00, 0x00, 0x0c, 0x45, 0x00, 0x00, 0x04, 0x45, 0x00, 0x00, 0xfc, 0x44, 0x00, 0x00, 0xf4, 0x44, 0x00, 0x00, 0xec, 0x44, 0x00, 0x00, 0xe4, 0x44, 0x00, 0x00, 0xdc, 0x44, 0x00, 0x00, 0xd4, 0x44, 0x00, 0x00, 0xcc, 0x44, 0x00, 0x00, 0xc4, 0x44, 0x00, 0x00, 0xbc, 0x44, 0x00, 0x00, 0xb4, 0x44, 0x00, 0x00, 0xac, 0x44, 0x00, 0x00, 0xa4, 0x44, 0x00, 0x00, 0x9c, 0x44, 0x00, 0x00, 0x94, 0x44, 0x00, 0x00, 0x8c, 0x44, 0x00, 0x00, 0x84, 0x44, 0x00, 0x00, 0x7c, 0x44, 0x00, 0x00, 0x74, 0x44, 0x00, 0x00, 0x6c, 0x44, 0x00, 0x00, 0x64, 0x44, 0x00, 0x00, 0x5c, 0x44, 0x00, 0x00, 0x54, 0x44, 0x00, 0x00, 0x4c, 0x44, 0x00, 0x00, 0x44, 0x44, 0x00, 0x00, 0x3c, 0x44, 0x00, 0x00, 0x34, 0x44, 0x00, 0x00, 0x2c, 0x44, 0x00, 0x00, 0x24, 0x44, 0x00, 0x00, 0x1c, 0x44, 0x00, 0x00, 0x14, 0x44, 0x00, 0x00, 0x0c, 0x44, 0x00, 0x00, 0x04, 0x44, 0x00, 0x00, 0xfc, 0x43, 0x00, 0x00, 0xf4, 0x43, 0x00, 0x00, 0xec, 0x43, 0x00, 0x00, 0xe4, 0x43, 0x00, 0x00, 0xdc, 0x43, 0x00, 0x00, 0xd4, 0x43, 0x00, 0x00, 0xcc, 0x43, 0x00, 0x00, 0xc4, 0x43, 0x00, 0x00, 0xbc, 0x43, 0x00, 0x00, 0xb4, 0x43, 0x00, 0x00, 0xac, 0x43, 0x00, 0x00, 0xa4, 0x43, 0x00, 0x00, 0x9c, 0x43, 0x00, 0x00, 0x94, 0x43, 0x00, 0x00, 0x8c, 0x43, 0x00, 0x00, 0x84, 0x43, 0x00, 0x00, 0x7c, 0x43, 0x00, 0x00, 0x74, 0x43, 0x00, 0x00, 0x6c, 0x43, 0x00, 0x00, 0x64, 0x43, 0x00, 0x00, 0x5c, 0x43, 0x00, 0x00, 0x54, 0x43, 0x00, 0x00, 0x4c, 0x43, 0x00, 0x00, 0x44, 0x43, 0x00, 0x00, 0x3c, 0x43, 0x00, 0x00, 0x34, 0x43, 0x00, 0x00, 0x2c, 0x43, 0x00, 0x00, 0x24, 0x43, 0x00, 0x00, 0x1c, 0x43, 0x00, 0x00, 0x14, 0x43, 0x00, 0x00, 0x0c, 0x43, 0x00, 0x00, 0x04, 0x43, 0x00, 0x00, 0xfc, 0x42, 0x00, 0x00, 0xf4, 0x42, 0x00, 0x00, 0xec, 0x42, 0x00, 0x00, 0xe4, 0x42, 0x00, 0x00, 0xdc, 0x42, 0x00, 0x00, 0xd4, 0x42, 0x00, 0x00, 0xcc, 0x42, 0x00, 0x00, 0xc4, 0x42, 0x00, 0x00, 0xbc, 0x42, 0x00, 0x00, 0xb4, 0x42, 0x00, 0x00, 0xac, 0x42, 0x00, 0x00, 0xa4, 0x42, 0x00, 0x00, 0x9c, 0x42, 0x00, 0x00, 0x94, 0x42, 0x00, 0x00, 0x8c, 0x42, 0x00, 0x00, 0x84, 0x42, 0x00, 0x00, 0x7c, 0x42, 0x00, 0x00, 0x74, 0x42, 0x00, 0x00, 0x6c, 0x42, 0x00, 0x00, 0x64, 0x42, 0x00, 0x00, 0x5c, 0x42, 0x00, 0x00, 0x54, 0x42, 0x00, 0x00, 0x4c, 0x42, 0x00, 0x00, 0x44, 0x42, 0x00, 0x00, 0x3c, 0x42, 0x00, 0x00, 0x34, 0x42, 0x00, 0x00, 0x2c, 0x42, 0x00, 0x00, 0x24, 0x42, 0x00, 0x00, 0x1c, 0x42, 0x00, 0x00, 0x14, 0x42, 0x00, 0x00, 0x0c, 0x42, 0x00, 0x00, 0x04, 0x42, 0x00, 0x00, 0xfc, 0x41, 0x00, 0x00, 0xf4, 0x41, 0x00, 0x00, 0xec, 0x41, 0x00, 0x00, 0xe4, 0x41, 0x00, 0x00, 0xdc, 0x41, 0x00, 0x00, 0xd4, 0x41, 0x00, 0x00, 0xcc, 0x41, 0x00, 0x00, 0xc4, 0x41, 0x00, 0x00, 0xbc, 0x41, 0x00, 0x00, 0xb4, 0x41, 0x00, 0x00, 0xac, 0x41, 0x00, 0x00, 0xa4, 0x41, 0x00, 0x00, 0x9c, 0x41, 0x00, 0x00, 0x94, 0x41, 0x00, 0x00, 0x8c, 0x41, 0x00, 0x00, 0x84, 0x41, 0x00, 0x00, 0x7c, 0x41, 0x00, 0x00, 0x74, 0x41, 0x00, 0x00, 0x6c, 0x41, 0x00, 0x00, 0x64, 0x41, 0x00, 0x00, 0x5c, 0x41, 0x00, 0x00, 0x54, 0x41, 0x00, 0x00, 0x4c, 0x41, 0x00, 0x00, 0x44, 0x41, 0x00, 0x00, 0x3c, 0x41, 0x00, 0x00, 0x34, 0x41, 0x00, 0x00, 0x2c, 0x41, 0x00, 0x00, 0x24, 0x41, 0x00, 0x00, 0x1c, 0x41, 0x00, 0x00, 0x14, 0x41, 0x00, 0x00, 0x0c, 0x41, 0x00, 0x00, 0x04, 0x41, 0x00, 0x00, 0xfc, 0x40, 0x00, 0x00, 0xf4, 0x40, 0x00, 0x00, 0xec, 0x40, 0x00, 0x00, 0xe4, 0x40, 0x00, 0x00, 0xdc, 0x40, 0x00, 0x00, 0xd4, 0x40, 0x00, 0x00, 0xcc, 0x40, 0x00, 0x00, 0xc4, 0x40, 0x00, 0x00, 0xbc, 0x40, 0x00, 0x00, 0xb4, 0x40, 0x00, 0x00, 0xac, 0x40, 0x00, 0x00, 0xa4, 0x40, 0x00, 0x00, 0x9c, 0x40, 0x00, 0x00, 0x94, 0x40, 0x00, 0x00, 0x8c, 0x40, 0x00, 0x00, 0x84, 0x40, 0x00, 0x00, 0x7c, 0x40, 0x00, 0x00, 0x74, 0x40, 0x00, 0x00, 0x6c, 0x40, 0x00, 0x00, 0x64, 0x40, 0x00, 0x00, 0x5c, 0x40, 0x00, 0x00, 0x54, 0x40, 0x00, 0x00, 0x4c, 0x40, 0x00, 0x00, 0x44, 0x40, 0x00, 0x00, 0x3c, 0x40, 0x00, 0x00, 0x34, 0x40, 0x00, 0x00, 0x2c, 0x40, 0x00, 0x00, 0x24, 0x40, 0x00, 0x00, 0x1c, 0x40, 0x00, 0x00, 0x14, 0x40, 0x00, 0x00, 0x0c, 0x40, 0x00, 0x00, 0x04, 0x40, 0x00, 0x00, 0xfc, 0x3f, 0x00, 0x00, 0xf4, 0x3f, 0x00, 0x00, 0xec, 0x3f, 0x00, 0x00, 0xe4, 0x3f, 0x00, 0x00, 0xdc, 0x3f, 0x00, 0x00, 0xd4, 0x3f, 0x00, 0x00, 0xcc, 0x3f, 0x00, 0x00, 0xc4, 0x3f, 0x00, 0x00, 0xbc, 0x3f, 0x00, 0x00, 0xb4, 0x3f, 0x00, 0x00, 0xac, 0x3f, 0x00, 0x00, 0xa4, 0x3f, 0x00, 0x00, 0x9c, 0x3f, 0x00, 0x00, 0x94, 0x3f, 0x00, 0x00, 0x8c, 0x3f, 0x00, 0x00, 0x84, 0x3f, 0x00, 0x00, 0x7c, 0x3f, 0x00, 0x00, 0x74, 0x3f, 0x00, 0x00, 0x6c, 0x3f, 0x00, 0x00, 0x64, 0x3f, 0x00, 0x00, 0x5c, 0x3f, 0x00, 0x00, 0x54, 0x3f, 0x00, 0x00, 0x4c, 0x3f, 0x00, 0x00, 0x44, 0x3f, 0x00, 0x00, 0x3c, 0x3f, 0x00, 0x00, 0x34, 0x3f, 0x00, 0x00, 0x2c, 0x3f, 0x00, 0x00, 0x24, 0x3f, 0x00, 0x00, 0x1c, 0x3f, 0x00, 0x00, 0x14, 0x3f, 0x00, 0x00, 0x0c, 0x3f, 0x00, 0x00, 0x04, 0x3f, 0x00, 0x00, 0xfc, 0x3e, 0x00, 0x00, 0xf4, 0x3e, 0x00, 0x00, 0xec, 0x3e, 0x00, 0x00, 0xe4, 0x3e, 0x00, 0x00, 0xdc, 0x3e, 0x00, 0x00, 0xd4, 0x3e, 0x00, 0x00, 0xcc, 0x3e, 0x00, 0x00, 0xc4, 0x3e, 0x00, 0x00, 0xbc, 0x3e, 0x00, 0x00, 0xb4, 0x3e, 0x00, 0x00, 0xac, 0x3e, 0x00, 0x00, 0xa4, 0x3e, 0x00, 0x00, 0x9c, 0x3e, 0x00, 0x00, 0x94, 0x3e, 0x00, 0x00, 0x8c, 0x3e, 0x00, 0x00, 0x84, 0x3e, 0x00, 0x00, 0x7c, 0x3e, 0x00, 0x00, 0x74, 0x3e, 0x00, 0x00, 0x6c, 0x3e, 0x00, 0x00, 0x64, 0x3e, 0x00, 0x00, 0x5c, 0x3e, 0x00, 0x00, 0x54, 0x3e, 0x00, 0x00, 0x4c, 0x3e, 0x00, 0x00, 0x44, 0x3e, 0x00, 0x00, 0x3c, 0x3e, 0x00, 0x00, 0x34, 0x3e, 0x00, 0x00, 0x2c, 0x3e, 0x00, 0x00, 0x24, 0x3e, 0x00, 0x00, 0x1c, 0x3e, 0x00, 0x00, 0x14, 0x3e, 0x00, 0x00, 0x0c, 0x3e, 0x00, 0x00, 0x04, 0x3e, 0x00, 0x00, 0xfc, 0x3d, 0x00, 0x00, 0xf4, 0x3d, 0x00, 0x00, 0xec, 0x3d, 0x00, 0x00, 0xe4, 0x3d, 0x00, 0x00, 0xdc, 0x3d, 0x00, 0x00, 0xd4, 0x3d, 0x00, 0x00, 0xcc, 0x3d, 0x00, 0x00, 0xc4, 0x3d, 0x00, 0x00, 0xbc, 0x3d, 0x00, 0x00, 0xb4, 0x3d, 0x00, 0x00, 0xac, 0x3d, 0x00, 0x00, 0xa4, 0x3d, 0x00, 0x00, 0x9c, 0x3d, 0x00, 0x00, 0x94, 0x3d, 0x00, 0x00, 0x8c, 0x3d, 0x00, 0x00, 0x84, 0x3d, 0x00, 0x00, 0x7c, 0x3d, 0x00, 0x00, 0x74, 0x3d, 0x00, 0x00, 0x6c, 0x3d, 0x00, 0x00, 0x64, 0x3d, 0x00, 0x00, 0x5c, 0x3d, 0x00, 0x00, 0x54, 0x3d, 0x00, 0x00, 0x4c, 0x3d, 0x00, 0x00, 0x44, 0x3d, 0x00, 0x00, 0x3c, 0x3d, 0x00, 0x00, 0x34, 0x3d, 0x00, 0x00, 0x2c, 0x3d, 0x00, 0x00, 0x24, 0x3d, 0x00, 0x00, 0x1c, 0x3d, 0x00, 0x00, 0x14, 0x3d, 0x00, 0x00, 0x0c, 0x3d, 0x00, 0x00, 0x04, 0x3d, 0x00, 0x00, 0xfc, 0x3c, 0x00, 0x00, 0xf4, 0x3c, 0x00, 0x00, 0xec, 0x3c, 0x00, 0x00, 0xe4, 0x3c, 0x00, 0x00, 0xdc, 0x3c, 0x00, 0x00, 0xd4, 0x3c, 0x00, 0x00, 0xcc, 0x3c, 0x00, 0x00, 0xc4, 0x3c, 0x00, 0x00, 0xbc, 0x3c, 0x00, 0x00, 0xb4, 0x3c, 0x00, 0x00, 0xac, 0x3c, 0x00, 0x00, 0xa4, 0x3c, 0x00, 0x00, 0x9c, 0x3c, 0x00, 0x00, 0x94, 0x3c, 0x00, 0x00, 0x8c, 0x3c, 0x00, 0x00, 0x84, 0x3c, 0x00, 0x00, 0x7c, 0x3c, 0x00, 0x00, 0x74, 0x3c, 0x00, 0x00, 0x6c, 0x3c, 0x00, 0x00, 0x64, 0x3c, 0x00, 0x00, 0x5c, 0x3c, 0x00, 0x00, 0x54, 0x3c, 0x00, 0x00, 0x4c, 0x3c, 0x00, 0x00, 0x44, 0x3c, 0x00, 0x00, 0x3c, 0x3c, 0x00, 0x00, 0x34, 0x3c, 0x00, 0x00, 0x2c, 0x3c, 0x00, 0x00, 0x24, 0x3c, 0x00, 0x00, 0x1c, 0x3c, 0x00, 0x00, 0x14, 0x3c, 0x00, 0x00, 0x0c, 0x3c, 0x00, 0x00, 0x04, 0x3c, 0x00, 0x00, 0xfc, 0x3b, 0x00, 0x00, 0xf4, 0x3b, 0x00, 0x00, 0xec, 0x3b, 0x00, 0x00, 0xe4, 0x3b, 0x00, 0x00, 0xdc, 0x3b, 0x00, 0x00, 0xd4, 0x3b, 0x00, 0x00, 0xcc, 0x3b, 0x00, 0x00, 0xc4, 0x3b, 0x00, 0x00, 0xbc, 0x3b, 0x00, 0x00, 0xb4, 0x3b, 0x00, 0x00, 0xac, 0x3b, 0x00, 0x00, 0xa4, 0x3b, 0x00, 0x00, 0x9c, 0x3b, 0x00, 0x00, 0x94, 0x3b, 0x00, 0x00, 0x8c, 0x3b, 0x00, 0x00, 0x84, 0x3b, 0x00, 0x00, 0x7c, 0x3b, 0x00, 0x00, 0x74, 0x3b, 0x00, 0x00, 0x6c, 0x3b, 0x00, 0x00, 0x64, 0x3b, 0x00, 0x00, 0x5c, 0x3b, 0x00, 0x00, 0x54, 0x3b, 0x00, 0x00, 0x4c, 0x3b, 0x00, 0x00, 0x44, 0x3b, 0x00, 0x00, 0x3c, 0x3b, 0x00, 0x00, 0x34, 0x3b, 0x00, 0x00, 0x2c, 0x3b, 0x00, 0x00, 0x24, 0x3b, 0x00, 0x00, 0x1c, 0x3b, 0x00, 0x00, 0x14, 0x3b, 0x00, 0x00, 0x0c, 0x3b, 0x00, 0x00, 0x04, 0x3b, 0x00, 0x00, 0xfc, 0x3a, 0x00, 0x00, 0xf4, 0x3a, 0x00, 0x00, 0xec, 0x3a, 0x00, 0x00, 0xe4, 0x3a, 0x00, 0x00, 0xdc, 0x3a, 0x00, 0x00, 0xd4, 0x3a, 0x00, 0x00, 0xcc, 0x3a, 0x00, 0x00, 0xc4, 0x3a, 0x00, 0x00, 0xbc, 0x3a, 0x00, 0x00, 0xb4, 0x3a, 0x00, 0x00, 0xac, 0x3a, 0x00, 0x00, 0xa4, 0x3a, 0x00, 0x00, 0x9c, 0x3a, 0x00, 0x00, 0x94, 0x3a, 0x00, 0x00, 0x8c, 0x3a, 0x00, 0x00, 0x84, 0x3a, 0x00, 0x00, 0x7c, 0x3a, 0x00, 0x00, 0x74, 0x3a, 0x00, 0x00, 0x6c, 0x3a, 0x00, 0x00, 0x64, 0x3a, 0x00, 0x00, 0x5c, 0x3a, 0x00, 0x00, 0x54, 0x3a, 0x00, 0x00, 0x4c, 0x3a, 0x00, 0x00, 0x44, 0x3a, 0x00, 0x00, 0x3c, 0x3a, 0x00, 0x00, 0x34, 0x3a, 0x00, 0x00, 0x2c, 0x3a, 0x00, 0x00, 0x24, 0x3a, 0x00, 0x00, 0x1c, 0x3a, 0x00, 0x00, 0x14, 0x3a, 0x00, 0x00, 0x0c, 0x3a, 0x00, 0x00, 0x04, 0x3a, 0x00, 0x00, 0xfc, 0x39, 0x00, 0x00, 0xf4, 0x39, 0x00, 0x00, 0xec, 0x39, 0x00, 0x00, 0xe4, 0x39, 0x00, 0x00, 0xdc, 0x39, 0x00, 0x00, 0xd4, 0x39, 0x00, 0x00, 0xcc, 0x39, 0x00, 0x00, 0xc4, 0x39, 0x00, 0x00, 0xbc, 0x39, 0x00, 0x00, 0xb4, 0x39, 0x00, 0x00, 0xac, 0x39, 0x00, 0x00, 0xa4, 0x39, 0x00, 0x00, 0x9c, 0x39, 0x00, 0x00, 0x94, 0x39, 0x00, 0x00, 0x8c, 0x39, 0x00, 0x00, 0x84, 0x39, 0x00, 0x00, 0x7c, 0x39, 0x00, 0x00, 0x74, 0x39, 0x00, 0x00, 0x6c, 0x39, 0x00, 0x00, 0x64, 0x39, 0x00, 0x00, 0x5c, 0x39, 0x00, 0x00, 0x54, 0x39, 0x00, 0x00, 0x4c, 0x39, 0x00, 0x00, 0x44, 0x39, 0x00, 0x00, 0x3c, 0x39, 0x00, 0x00, 0x34, 0x39, 0x00, 0x00, 0x2c, 0x39, 0x00, 0x00, 0x24, 0x39, 0x00, 0x00, 0x1c, 0x39, 0x00, 0x00, 0x14, 0x39, 0x00, 0x00, 0x0c, 0x39, 0x00, 0x00, 0x04, 0x39, 0x00, 0x00, 0xfc, 0x38, 0x00, 0x00, 0xf4, 0x38, 0x00, 0x00, 0xec, 0x38, 0x00, 0x00, 0xe4, 0x38, 0x00, 0x00, 0xdc, 0x38, 0x00, 0x00, 0xd4, 0x38, 0x00, 0x00, 0xcc, 0x38, 0x00, 0x00, 0xc4, 0x38, 0x00, 0x00, 0xbc, 0x38, 0x00, 0x00, 0xb4, 0x38, 0x00, 0x00, 0xac, 0x38, 0x00, 0x00, 0xa4, 0x38, 0x00, 0x00, 0x9c, 0x38, 0x00, 0x00, 0x94, 0x38, 0x00, 0x00, 0x8c, 0x38, 0x00, 0x00, 0x84, 0x38, 0x00, 0x00, 0x7c, 0x38, 0x00, 0x00, 0x74, 0x38, 0x00, 0x00, 0x6c, 0x38, 0x00, 0x00, 0x64, 0x38, 0x00, 0x00, 0x5c, 0x38, 0x00, 0x00, 0x54, 0x38, 0x00, 0x00, 0x4c, 0x38, 0x00, 0x00, 0x44, 0x38, 0x00, 0x00, 0x3c, 0x38, 0x00, 0x00, 0x34, 0x38, 0x00, 0x00, 0x2c, 0x38, 0x00, 0x00, 0x24, 0x38, 0x00, 0x00, 0x1c, 0x38, 0x00, 0x00, 0x14, 0x38, 0x00, 0x00, 0x0c, 0x38, 0x00, 0x00, 0x04, 0x38, 0x00, 0x00, 0xfc, 0x37, 0x00, 0x00, 0xf4, 0x37, 0x00, 0x00, 0xec, 0x37, 0x00, 0x00, 0xe4, 0x37, 0x00, 0x00, 0xdc, 0x37, 0x00, 0x00, 0xd4, 0x37, 0x00, 0x00, 0xcc, 0x37, 0x00, 0x00, 0xc4, 0x37, 0x00, 0x00, 0xbc, 0x37, 0x00, 0x00, 0xb4, 0x37, 0x00, 0x00, 0xac, 0x37, 0x00, 0x00, 0xa4, 0x37, 0x00, 0x00, 0x9c, 0x37, 0x00, 0x00, 0x94, 0x37, 0x00, 0x00, 0x8c, 0x37, 0x00, 0x00, 0x84, 0x37, 0x00, 0x00, 0x7c, 0x37, 0x00, 0x00, 0x74, 0x37, 0x00, 0x00, 0x6c, 0x37, 0x00, 0x00, 0x64, 0x37, 0x00, 0x00, 0x5c, 0x37, 0x00, 0x00, 0x54, 0x37, 0x00, 0x00, 0x4c, 0x37, 0x00, 0x00, 0x44, 0x37, 0x00, 0x00, 0x3c, 0x37, 0x00, 0x00, 0x34, 0x37, 0x00, 0x00, 0x2c, 0x37, 0x00, 0x00, 0x24, 0x37, 0x00, 0x00, 0x1c, 0x37, 0x00, 0x00, 0x14, 0x37, 0x00, 0x00, 0x0c, 0x37, 0x00, 0x00, 0x04, 0x37, 0x00, 0x00, 0xfc, 0x36, 0x00, 0x00, 0xf4, 0x36, 0x00, 0x00, 0xec, 0x36, 0x00, 0x00, 0xe4, 0x36, 0x00, 0x00, 0xdc, 0x36, 0x00, 0x00, 0xd4, 0x36, 0x00, 0x00, 0xcc, 0x36, 0x00, 0x00, 0xc4, 0x36, 0x00, 0x00, 0xbc, 0x36, 0x00, 0x00, 0xb4, 0x36, 0x00, 0x00, 0xac, 0x36, 0x00, 0x00, 0xa4, 0x36, 0x00, 0x00, 0x9c, 0x36, 0x00, 0x00, 0x94, 0x36, 0x00, 0x00, 0x8c, 0x36, 0x00, 0x00, 0x84, 0x36, 0x00, 0x00, 0x7c, 0x36, 0x00, 0x00, 0x74, 0x36, 0x00, 0x00, 0x6c, 0x36, 0x00, 0x00, 0x64, 0x36, 0x00, 0x00, 0x5c, 0x36, 0x00, 0x00, 0x54, 0x36, 0x00, 0x00, 0x4c, 0x36, 0x00, 0x00, 0x44, 0x36, 0x00, 0x00, 0x3c, 0x36, 0x00, 0x00, 0x34, 0x36, 0x00, 0x00, 0x2c, 0x36, 0x00, 0x00, 0x24, 0x36, 0x00, 0x00, 0x1c, 0x36, 0x00, 0x00, 0x14, 0x36, 0x00, 0x00, 0x0c, 0x36, 0x00, 0x00, 0x04, 0x36, 0x00, 0x00, 0xfc, 0x35, 0x00, 0x00, 0xf4, 0x35, 0x00, 0x00, 0xec, 0x35, 0x00, 0x00, 0xe4, 0x35, 0x00, 0x00, 0xdc, 0x35, 0x00, 0x00, 0xd4, 0x35, 0x00, 0x00, 0xcc, 0x35, 0x00, 0x00, 0xc4, 0x35, 0x00, 0x00, 0xbc, 0x35, 0x00, 0x00, 0xb4, 0x35, 0x00, 0x00, 0xac, 0x35, 0x00, 0x00, 0xa4, 0x35, 0x00, 0x00, 0x9c, 0x35, 0x00, 0x00, 0x94, 0x35, 0x00, 0x00, 0x8c, 0x35, 0x00, 0x00, 0x84, 0x35, 0x00, 0x00, 0x7c, 0x35, 0x00, 0x00, 0x74, 0x35, 0x00, 0x00, 0x6c, 0x35, 0x00, 0x00, 0x64, 0x35, 0x00, 0x00, 0x5c, 0x35, 0x00, 0x00, 0x54, 0x35, 0x00, 0x00, 0x4c, 0x35, 0x00, 0x00, 0x44, 0x35, 0x00, 0x00, 0x3c, 0x35, 0x00, 0x00, 0x34, 0x35, 0x00, 0x00, 0x2c, 0x35, 0x00, 0x00, 0x24, 0x35, 0x00, 0x00, 0x1c, 0x35, 0x00, 0x00, 0x14, 0x35, 0x00, 0x00, 0x0c, 0x35, 0x00, 0x00, 0x04, 0x35, 0x00, 0x00, 0xfc, 0x34, 0x00, 0x00, 0xf4, 0x34, 0x00, 0x00, 0xec, 0x34, 0x00, 0x00, 0xe4, 0x34, 0x00, 0x00, 0xdc, 0x34, 0x00, 0x00, 0xd4, 0x34, 0x00, 0x00, 0xcc, 0x34, 0x00, 0x00, 0xc4, 0x34, 0x00, 0x00, 0xbc, 0x34, 0x00, 0x00, 0xb4, 0x34, 0x00, 0x00, 0xac, 0x34, 0x00, 0x00, 0xa4, 0x34, 0x00, 0x00, 0x9c, 0x34, 0x00, 0x00, 0x94, 0x34, 0x00, 0x00, 0x8c, 0x34, 0x00, 0x00, 0x84, 0x34, 0x00, 0x00, 0x7c, 0x34, 0x00, 0x00, 0x74, 0x34, 0x00, 0x00, 0x6c, 0x34, 0x00, 0x00, 0x64, 0x34, 0x00, 0x00, 0x5c, 0x34, 0x00, 0x00, 0x54, 0x34, 0x00, 0x00, 0x4c, 0x34, 0x00, 0x00, 0x44, 0x34, 0x00, 0x00, 0x3c, 0x34, 0x00, 0x00, 0x34, 0x34, 0x00, 0x00, 0x2c, 0x34, 0x00, 0x00, 0x24, 0x34, 0x00, 0x00, 0x1c, 0x34, 0x00, 0x00, 0x14, 0x34, 0x00, 0x00, 0x0c, 0x34, 0x00, 0x00, 0x04, 0x34, 0x00, 0x00, 0xfc, 0x33, 0x00, 0x00, 0xf4, 0x33, 0x00, 0x00, 0xec, 0x33, 0x00, 0x00, 0xe4, 0x33, 0x00, 0x00, 0xdc, 0x33, 0x00, 0x00, 0xd4, 0x33, 0x00, 0x00, 0xcc, 0x33, 0x00, 0x00, 0xc4, 0x33, 0x00, 0x00, 0xbc, 0x33, 0x00, 0x00, 0xb4, 0x33, 0x00, 0x00, 0xac, 0x33, 0x00, 0x00, 0xa4, 0x33, 0x00, 0x00, 0x9c, 0x33, 0x00, 0x00, 0x94, 0x33, 0x00, 0x00, 0x8c, 0x33, 0x00, 0x00, 0x84, 0x33, 0x00, 0x00, 0x7c, 0x33, 0x00, 0x00, 0x74, 0x33, 0x00, 0x00, 0x6c, 0x33, 0x00, 0x00, 0x64, 0x33, 0x00, 0x00, 0x5c, 0x33, 0x00, 0x00, 0x54, 0x33, 0x00, 0x00, 0x4c, 0x33, 0x00, 0x00, 0x44, 0x33, 0x00, 0x00, 0x3c, 0x33, 0x00, 0x00, 0x34, 0x33, 0x00, 0x00, 0x2c, 0x33, 0x00, 0x00, 0x24, 0x33, 0x00, 0x00, 0x1c, 0x33, 0x00, 0x00, 0x14, 0x33, 0x00, 0x00, 0x0c, 0x33, 0x00, 0x00, 0x04, 0x33, 0x00, 0x00, 0xfc, 0x32, 0x00, 0x00, 0xf4, 0x32, 0x00, 0x00, 0xec, 0x32, 0x00, 0x00, 0xe4, 0x32, 0x00, 0x00, 0xdc, 0x32, 0x00, 0x00, 0xd4, 0x32, 0x00, 0x00, 0xcc, 0x32, 0x00, 0x00, 0xc4, 0x32, 0x00, 0x00, 0xbc, 0x32, 0x00, 0x00, 0xb4, 0x32, 0x00, 0x00, 0xac, 0x32, 0x00, 0x00, 0xa4, 0x32, 0x00, 0x00, 0x9c, 0x32, 0x00, 0x00, 0x94, 0x32, 0x00, 0x00, 0x8c, 0x32, 0x00, 0x00, 0x84, 0x32, 0x00, 0x00, 0x7c, 0x32, 0x00, 0x00, 0x74, 0x32, 0x00, 0x00, 0x6c, 0x32, 0x00, 0x00, 0x64, 0x32, 0x00, 0x00, 0x5c, 0x32, 0x00, 0x00, 0x54, 0x32, 0x00, 0x00, 0x4c, 0x32, 0x00, 0x00, 0x44, 0x32, 0x00, 0x00, 0x3c, 0x32, 0x00, 0x00, 0x34, 0x32, 0x00, 0x00, 0x2c, 0x32, 0x00, 0x00, 0x24, 0x32, 0x00, 0x00, 0x1c, 0x32, 0x00, 0x00, 0x14, 0x32, 0x00, 0x00, 0x0c, 0x32, 0x00, 0x00, 0x04, 0x32, 0x00, 0x00, 0xfc, 0x31, 0x00, 0x00, 0xf4, 0x31, 0x00, 0x00, 0xec, 0x31, 0x00, 0x00, 0xe4, 0x31, 0x00, 0x00, 0xdc, 0x31, 0x00, 0x00, 0xd4, 0x31, 0x00, 0x00, 0xcc, 0x31, 0x00, 0x00, 0xc4, 0x31, 0x00, 0x00, 0xbc, 0x31, 0x00, 0x00, 0xb4, 0x31, 0x00, 0x00, 0xac, 0x31, 0x00, 0x00, 0xa4, 0x31, 0x00, 0x00, 0x9c, 0x31, 0x00, 0x00, 0x94, 0x31, 0x00, 0x00, 0x8c, 0x31, 0x00, 0x00, 0x84, 0x31, 0x00, 0x00, 0x7c, 0x31, 0x00, 0x00, 0x74, 0x31, 0x00, 0x00, 0x6c, 0x31, 0x00, 0x00, 0x64, 0x31, 0x00, 0x00, 0x5c, 0x31, 0x00, 0x00, 0x54, 0x31, 0x00, 0x00, 0x4c, 0x31, 0x00, 0x00, 0x44, 0x31, 0x00, 0x00, 0x3c, 0x31, 0x00, 0x00, 0x34, 0x31, 0x00, 0x00, 0x2c, 0x31, 0x00, 0x00, 0x24, 0x31, 0x00, 0x00, 0x1c, 0x31, 0x00, 0x00, 0x14, 0x31, 0x00, 0x00, 0x0c, 0x31, 0x00, 0x00, 0x04, 0x31, 0x00, 0x00, 0xfc, 0x30, 0x00, 0x00, 0xf4, 0x30, 0x00, 0x00, 0xec, 0x30, 0x00, 0x00, 0xe4, 0x30, 0x00, 0x00, 0xdc, 0x30, 0x00, 0x00, 0xd4, 0x30, 0x00, 0x00, 0xcc, 0x30, 0x00, 0x00, 0xc4, 0x30, 0x00, 0x00, 0xbc, 0x30, 0x00, 0x00, 0xb4, 0x30, 0x00, 0x00, 0xac, 0x30, 0x00, 0x00, 0xa4, 0x30, 0x00, 0x00, 0x9c, 0x30, 0x00, 0x00, 0x94, 0x30, 0x00, 0x00, 0x8c, 0x30, 0x00, 0x00, 0x84, 0x30, 0x00, 0x00, 0x7c, 0x30, 0x00, 0x00, 0x74, 0x30, 0x00, 0x00, 0x6c, 0x30, 0x00, 0x00, 0x64, 0x30, 0x00, 0x00, 0x5c, 0x30, 0x00, 0x00, 0x54, 0x30, 0x00, 0x00, 0x4c, 0x30, 0x00, 0x00, 0x44, 0x30, 0x00, 0x00, 0x3c, 0x30, 0x00, 0x00, 0x34, 0x30, 0x00, 0x00, 0x2c, 0x30, 0x00, 0x00, 0x24, 0x30, 0x00, 0x00, 0x1c, 0x30, 0x00, 0x00, 0x14, 0x30, 0x00, 0x00, 0x0c, 0x30, 0x00, 0x00, 0x04, 0x30, 0x00, 0x00, 0xfc, 0x2f, 0x00, 0x00, 0xf4, 0x2f, 0x00, 0x00, 0xec, 0x2f, 0x00, 0x00, 0xe4, 0x2f, 0x00, 0x00, 0xdc, 0x2f, 0x00, 0x00, 0xd4, 0x2f, 0x00, 0x00, 0xcc, 0x2f, 0x00, 0x00, 0xc4, 0x2f, 0x00, 0x00, 0xbc, 0x2f, 0x00, 0x00, 0xb4, 0x2f, 0x00, 0x00, 0xac, 0x2f, 0x00, 0x00, 0xa4, 0x2f, 0x00, 0x00, 0x9c, 0x2f, 0x00, 0x00, 0x94, 0x2f, 0x00, 0x00, 0x8c, 0x2f, 0x00, 0x00, 0x84, 0x2f, 0x00, 0x00, 0x7c, 0x2f, 0x00, 0x00, 0x74, 0x2f, 0x00, 0x00, 0x6c, 0x2f, 0x00, 0x00, 0x64, 0x2f, 0x00, 0x00, 0x5c, 0x2f, 0x00, 0x00, 0x54, 0x2f, 0x00, 0x00, 0x4c, 0x2f, 0x00, 0x00, 0x44, 0x2f, 0x00, 0x00, 0x3c, 0x2f, 0x00, 0x00, 0x34, 0x2f, 0x00, 0x00, 0x2c, 0x2f, 0x00, 0x00, 0x24, 0x2f, 0x00, 0x00, 0x1c, 0x2f, 0x00, 0x00, 0x14, 0x2f, 0x00, 0x00, 0x0c, 0x2f, 0x00, 0x00, 0x04, 0x2f, 0x00, 0x00, 0xfc, 0x2e, 0x00, 0x00, 0xf4, 0x2e, 0x00, 0x00, 0xec, 0x2e, 0x00, 0x00, 0xe4, 0x2e, 0x00, 0x00, 0xdc, 0x2e, 0x00, 0x00, 0xd4, 0x2e, 0x00, 0x00, 0xcc, 0x2e, 0x00, 0x00, 0xc4, 0x2e, 0x00, 0x00, 0xbc, 0x2e, 0x00, 0x00, 0xb4, 0x2e, 0x00, 0x00, 0xac, 0x2e, 0x00, 0x00, 0xa4, 0x2e, 0x00, 0x00, 0x9c, 0x2e, 0x00, 0x00, 0x94, 0x2e, 0x00, 0x00, 0x8c, 0x2e, 0x00, 0x00, 0x84, 0x2e, 0x00, 0x00, 0x7c, 0x2e, 0x00, 0x00, 0x74, 0x2e, 0x00, 0x00, 0x6c, 0x2e, 0x00, 0x00, 0x64, 0x2e, 0x00, 0x00, 0x5c, 0x2e, 0x00, 0x00, 0x54, 0x2e, 0x00, 0x00, 0x4c, 0x2e, 0x00, 0x00, 0x44, 0x2e, 0x00, 0x00, 0x3c, 0x2e, 0x00, 0x00, 0x34, 0x2e, 0x00, 0x00, 0x2c, 0x2e, 0x00, 0x00, 0x24, 0x2e, 0x00, 0x00, 0x1c, 0x2e, 0x00, 0x00, 0x14, 0x2e, 0x00, 0x00, 0x0c, 0x2e, 0x00, 0x00, 0x04, 0x2e, 0x00, 0x00, 0xfc, 0x2d, 0x00, 0x00, 0xf4, 0x2d, 0x00, 0x00, 0xec, 0x2d, 0x00, 0x00, 0xe4, 0x2d, 0x00, 0x00, 0xdc, 0x2d, 0x00, 0x00, 0xd4, 0x2d, 0x00, 0x00, 0xcc, 0x2d, 0x00, 0x00, 0xc4, 0x2d, 0x00, 0x00, 0xbc, 0x2d, 0x00, 0x00, 0xb4, 0x2d, 0x00, 0x00, 0xac, 0x2d, 0x00, 0x00, 0xa4, 0x2d, 0x00, 0x00, 0x9c, 0x2d, 0x00, 0x00, 0x94, 0x2d, 0x00, 0x00, 0x8c, 0x2d, 0x00, 0x00, 0x84, 0x2d, 0x00, 0x00, 0x7c, 0x2d, 0x00, 0x00, 0x74, 0x2d, 0x00, 0x00, 0x6c, 0x2d, 0x00, 0x00, 0x64, 0x2d, 0x00, 0x00, 0x5c, 0x2d, 0x00, 0x00, 0x54, 0x2d, 0x00, 0x00, 0x4c, 0x2d, 0x00, 0x00, 0x44, 0x2d, 0x00, 0x00, 0x3c, 0x2d, 0x00, 0x00, 0x34, 0x2d, 0x00, 0x00, 0x2c, 0x2d, 0x00, 0x00, 0x24, 0x2d, 0x00, 0x00, 0x1c, 0x2d, 0x00, 0x00, 0x14, 0x2d, 0x00, 0x00, 0x0c, 0x2d, 0x00, 0x00, 0x04, 0x2d, 0x00, 0x00, 0xfc, 0x2c, 0x00, 0x00, 0xf4, 0x2c, 0x00, 0x00, 0xec, 0x2c, 0x00, 0x00, 0xe4, 0x2c, 0x00, 0x00, 0xdc, 0x2c, 0x00, 0x00, 0xd4, 0x2c, 0x00, 0x00, 0xcc, 0x2c, 0x00, 0x00, 0xc4, 0x2c, 0x00, 0x00, 0xbc, 0x2c, 0x00, 0x00, 0xb4, 0x2c, 0x00, 0x00, 0xac, 0x2c, 0x00, 0x00, 0xa4, 0x2c, 0x00, 0x00, 0x9c, 0x2c, 0x00, 0x00, 0x94, 0x2c, 0x00, 0x00, 0x8c, 0x2c, 0x00, 0x00, 0x84, 0x2c, 0x00, 0x00, 0x7c, 0x2c, 0x00, 0x00, 0x74, 0x2c, 0x00, 0x00, 0x6c, 0x2c, 0x00, 0x00, 0x64, 0x2c, 0x00, 0x00, 0x5c, 0x2c, 0x00, 0x00, 0x54, 0x2c, 0x00, 0x00, 0x4c, 0x2c, 0x00, 0x00, 0x44, 0x2c, 0x00, 0x00, 0x3c, 0x2c, 0x00, 0x00, 0x34, 0x2c, 0x00, 0x00, 0x2c, 0x2c, 0x00, 0x00, 0x24, 0x2c, 0x00, 0x00, 0x1c, 0x2c, 0x00, 0x00, 0x14, 0x2c, 0x00, 0x00, 0x0c, 0x2c, 0x00, 0x00, 0x04, 0x2c, 0x00, 0x00, 0xfc, 0x2b, 0x00, 0x00, 0xf4, 0x2b, 0x00, 0x00, 0xec, 0x2b, 0x00, 0x00, 0xe4, 0x2b, 0x00, 0x00, 0xdc, 0x2b, 0x00, 0x00, 0xd4, 0x2b, 0x00, 0x00, 0xcc, 0x2b, 0x00, 0x00, 0xc4, 0x2b, 0x00, 0x00, 0xbc, 0x2b, 0x00, 0x00, 0xb4, 0x2b, 0x00, 0x00, 0xac, 0x2b, 0x00, 0x00, 0xa4, 0x2b, 0x00, 0x00, 0x9c, 0x2b, 0x00, 0x00, 0x94, 0x2b, 0x00, 0x00, 0x8c, 0x2b, 0x00, 0x00, 0x84, 0x2b, 0x00, 0x00, 0x7c, 0x2b, 0x00, 0x00, 0x74, 0x2b, 0x00, 0x00, 0x6c, 0x2b, 0x00, 0x00, 0x64, 0x2b, 0x00, 0x00, 0x5c, 0x2b, 0x00, 0x00, 0x54, 0x2b, 0x00, 0x00, 0x4c, 0x2b, 0x00, 0x00, 0x44, 0x2b, 0x00, 0x00, 0x3c, 0x2b, 0x00, 0x00, 0x34, 0x2b, 0x00, 0x00, 0x2c, 0x2b, 0x00, 0x00, 0x24, 0x2b, 0x00, 0x00, 0x1c, 0x2b, 0x00, 0x00, 0x14, 0x2b, 0x00, 0x00, 0x0c, 0x2b, 0x00, 0x00, 0x04, 0x2b, 0x00, 0x00, 0xfc, 0x2a, 0x00, 0x00, 0xf4, 0x2a, 0x00, 0x00, 0xec, 0x2a, 0x00, 0x00, 0xe4, 0x2a, 0x00, 0x00, 0xdc, 0x2a, 0x00, 0x00, 0xd4, 0x2a, 0x00, 0x00, 0xcc, 0x2a, 0x00, 0x00, 0xc4, 0x2a, 0x00, 0x00, 0xbc, 0x2a, 0x00, 0x00, 0xb4, 0x2a, 0x00, 0x00, 0xac, 0x2a, 0x00, 0x00, 0xa4, 0x2a, 0x00, 0x00, 0x9c, 0x2a, 0x00, 0x00, 0x94, 0x2a, 0x00, 0x00, 0x8c, 0x2a, 0x00, 0x00, 0x84, 0x2a, 0x00, 0x00, 0x7c, 0x2a, 0x00, 0x00, 0x74, 0x2a, 0x00, 0x00, 0x6c, 0x2a, 0x00, 0x00, 0x64, 0x2a, 0x00, 0x00, 0x5c, 0x2a, 0x00, 0x00, 0x54, 0x2a, 0x00, 0x00, 0x4c, 0x2a, 0x00, 0x00, 0x44, 0x2a, 0x00, 0x00, 0x3c, 0x2a, 0x00, 0x00, 0x34, 0x2a, 0x00, 0x00, 0x2c, 0x2a, 0x00, 0x00, 0x24, 0x2a, 0x00, 0x00, 0x1c, 0x2a, 0x00, 0x00, 0x14, 0x2a, 0x00, 0x00, 0x0c, 0x2a, 0x00, 0x00, 0x04, 0x2a, 0x00, 0x00, 0xfc, 0x29, 0x00, 0x00, 0xf4, 0x29, 0x00, 0x00, 0xec, 0x29, 0x00, 0x00, 0xe4, 0x29, 0x00, 0x00, 0xdc, 0x29, 0x00, 0x00, 0xd4, 0x29, 0x00, 0x00, 0xcc, 0x29, 0x00, 0x00, 0xc4, 0x29, 0x00, 0x00, 0xbc, 0x29, 0x00, 0x00, 0xb4, 0x29, 0x00, 0x00, 0xac, 0x29, 0x00, 0x00, 0xa4, 0x29, 0x00, 0x00, 0x9c, 0x29, 0x00, 0x00, 0x94, 0x29, 0x00, 0x00, 0x8c, 0x29, 0x00, 0x00, 0x84, 0x29, 0x00, 0x00, 0x7c, 0x29, 0x00, 0x00, 0x74, 0x29, 0x00, 0x00, 0x6c, 0x29, 0x00, 0x00, 0x64, 0x29, 0x00, 0x00, 0x5c, 0x29, 0x00, 0x00, 0x54, 0x29, 0x00, 0x00, 0x4c, 0x29, 0x00, 0x00, 0x44, 0x29, 0x00, 0x00, 0x3c, 0x29, 0x00, 0x00, 0x34, 0x29, 0x00, 0x00, 0x2c, 0x29, 0x00, 0x00, 0x24, 0x29, 0x00, 0x00, 0x1c, 0x29, 0x00, 0x00, 0x14, 0x29, 0x00, 0x00, 0x0c, 0x29, 0x00, 0x00, 0x04, 0x29, 0x00, 0x00, 0xfc, 0x28, 0x00, 0x00, 0xf4, 0x28, 0x00, 0x00, 0xec, 0x28, 0x00, 0x00, 0xe4, 0x28, 0x00, 0x00, 0xdc, 0x28, 0x00, 0x00, 0xd4, 0x28, 0x00, 0x00, 0xcc, 0x28, 0x00, 0x00, 0xc4, 0x28, 0x00, 0x00, 0xbc, 0x28, 0x00, 0x00, 0xb4, 0x28, 0x00, 0x00, 0xac, 0x28, 0x00, 0x00, 0xa4, 0x28, 0x00, 0x00, 0x9c, 0x28, 0x00, 0x00, 0x94, 0x28, 0x00, 0x00, 0x8c, 0x28, 0x00, 0x00, 0x84, 0x28, 0x00, 0x00, 0x7c, 0x28, 0x00, 0x00, 0x74, 0x28, 0x00, 0x00, 0x6c, 0x28, 0x00, 0x00, 0x64, 0x28, 0x00, 0x00, 0x5c, 0x28, 0x00, 0x00, 0x54, 0x28, 0x00, 0x00, 0x4c, 0x28, 0x00, 0x00, 0x44, 0x28, 0x00, 0x00, 0x3c, 0x28, 0x00, 0x00, 0x34, 0x28, 0x00, 0x00, 0x2c, 0x28, 0x00, 0x00, 0x24, 0x28, 0x00, 0x00, 0x1c, 0x28, 0x00, 0x00, 0x14, 0x28, 0x00, 0x00, 0x0c, 0x28, 0x00, 0x00, 0x04, 0x28, 0x00, 0x00, 0xfc, 0x27, 0x00, 0x00, 0xf4, 0x27, 0x00, 0x00, 0xec, 0x27, 0x00, 0x00, 0xe4, 0x27, 0x00, 0x00, 0xdc, 0x27, 0x00, 0x00, 0xd4, 0x27, 0x00, 0x00, 0xcc, 0x27, 0x00, 0x00, 0xc4, 0x27, 0x00, 0x00, 0xbc, 0x27, 0x00, 0x00, 0xb4, 0x27, 0x00, 0x00, 0xac, 0x27, 0x00, 0x00, 0xa4, 0x27, 0x00, 0x00, 0x9c, 0x27, 0x00, 0x00, 0x94, 0x27, 0x00, 0x00, 0x8c, 0x27, 0x00, 0x00, 0x84, 0x27, 0x00, 0x00, 0x7c, 0x27, 0x00, 0x00, 0x74, 0x27, 0x00, 0x00, 0x6c, 0x27, 0x00, 0x00, 0x64, 0x27, 0x00, 0x00, 0x5c, 0x27, 0x00, 0x00, 0x54, 0x27, 0x00, 0x00, 0x4c, 0x27, 0x00, 0x00, 0x44, 0x27, 0x00, 0x00, 0x3c, 0x27, 0x00, 0x00, 0x34, 0x27, 0x00, 0x00, 0x2c, 0x27, 0x00, 0x00, 0x24, 0x27, 0x00, 0x00, 0x1c, 0x27, 0x00, 0x00, 0x14, 0x27, 0x00, 0x00, 0x0c, 0x27, 0x00, 0x00, 0x04, 0x27, 0x00, 0x00, 0xfc, 0x26, 0x00, 0x00, 0xf4, 0x26, 0x00, 0x00, 0xec, 0x26, 0x00, 0x00, 0xe4, 0x26, 0x00, 0x00, 0xdc, 0x26, 0x00, 0x00, 0xd4, 0x26, 0x00, 0x00, 0xcc, 0x26, 0x00, 0x00, 0xc4, 0x26, 0x00, 0x00, 0xbc, 0x26, 0x00, 0x00, 0xb4, 0x26, 0x00, 0x00, 0xac, 0x26, 0x00, 0x00, 0xa4, 0x26, 0x00, 0x00, 0x9c, 0x26, 0x00, 0x00, 0x94, 0x26, 0x00, 0x00, 0x8c, 0x26, 0x00, 0x00, 0x84, 0x26, 0x00, 0x00, 0x7c, 0x26, 0x00, 0x00, 0x74, 0x26, 0x00, 0x00, 0x6c, 0x26, 0x00, 0x00, 0x64, 0x26, 0x00, 0x00, 0x5c, 0x26, 0x00, 0x00, 0x54, 0x26, 0x00, 0x00, 0x4c, 0x26, 0x00, 0x00, 0x44, 0x26, 0x00, 0x00, 0x3c, 0x26, 0x00, 0x00, 0x34, 0x26, 0x00, 0x00, 0x2c, 0x26, 0x00, 0x00, 0x24, 0x26, 0x00, 0x00, 0x1c, 0x26, 0x00, 0x00, 0x14, 0x26, 0x00, 0x00, 0x0c, 0x26, 0x00, 0x00, 0x04, 0x26, 0x00, 0x00, 0xfc, 0x25, 0x00, 0x00, 0xf4, 0x25, 0x00, 0x00, 0xec, 0x25, 0x00, 0x00, 0xe4, 0x25, 0x00, 0x00, 0xdc, 0x25, 0x00, 0x00, 0xd4, 0x25, 0x00, 0x00, 0xcc, 0x25, 0x00, 0x00, 0xc4, 0x25, 0x00, 0x00, 0xbc, 0x25, 0x00, 0x00, 0xb4, 0x25, 0x00, 0x00, 0xac, 0x25, 0x00, 0x00, 0xa4, 0x25, 0x00, 0x00, 0x9c, 0x25, 0x00, 0x00, 0x94, 0x25, 0x00, 0x00, 0x8c, 0x25, 0x00, 0x00, 0x84, 0x25, 0x00, 0x00, 0x7c, 0x25, 0x00, 0x00, 0x74, 0x25, 0x00, 0x00, 0x6c, 0x25, 0x00, 0x00, 0x64, 0x25, 0x00, 0x00, 0x5c, 0x25, 0x00, 0x00, 0x54, 0x25, 0x00, 0x00, 0x4c, 0x25, 0x00, 0x00, 0x44, 0x25, 0x00, 0x00, 0x3c, 0x25, 0x00, 0x00, 0x34, 0x25, 0x00, 0x00, 0x2c, 0x25, 0x00, 0x00, 0x24, 0x25, 0x00, 0x00, 0x1c, 0x25, 0x00, 0x00, 0x14, 0x25, 0x00, 0x00, 0x0c, 0x25, 0x00, 0x00, 0x04, 0x25, 0x00, 0x00, 0xfc, 0x24, 0x00, 0x00, 0xf4, 0x24, 0x00, 0x00, 0xec, 0x24, 0x00, 0x00, 0xe4, 0x24, 0x00, 0x00, 0xdc, 0x24, 0x00, 0x00, 0xd4, 0x24, 0x00, 0x00, 0xcc, 0x24, 0x00, 0x00, 0xc4, 0x24, 0x00, 0x00, 0xbc, 0x24, 0x00, 0x00, 0xb4, 0x24, 0x00, 0x00, 0xac, 0x24, 0x00, 0x00, 0xa4, 0x24, 0x00, 0x00, 0x9c, 0x24, 0x00, 0x00, 0x94, 0x24, 0x00, 0x00, 0x8c, 0x24, 0x00, 0x00, 0x84, 0x24, 0x00, 0x00, 0x7c, 0x24, 0x00, 0x00, 0x74, 0x24, 0x00, 0x00, 0x6c, 0x24, 0x00, 0x00, 0x64, 0x24, 0x00, 0x00, 0x5c, 0x24, 0x00, 0x00, 0x54, 0x24, 0x00, 0x00, 0x4c, 0x24, 0x00, 0x00, 0x44, 0x24, 0x00, 0x00, 0x3c, 0x24, 0x00, 0x00, 0x34, 0x24, 0x00, 0x00, 0x2c, 0x24, 0x00, 0x00, 0x24, 0x24, 0x00, 0x00, 0x1c, 0x24, 0x00, 0x00, 0x14, 0x24, 0x00, 0x00, 0x0c, 0x24, 0x00, 0x00, 0x04, 0x24, 0x00, 0x00, 0xfc, 0x23, 0x00, 0x00, 0xf4, 0x23, 0x00, 0x00, 0xec, 0x23, 0x00, 0x00, 0xe4, 0x23, 0x00, 0x00, 0xdc, 0x23, 0x00, 0x00, 0xd4, 0x23, 0x00, 0x00, 0xcc, 0x23, 0x00, 0x00, 0xc4, 0x23, 0x00, 0x00, 0xbc, 0x23, 0x00, 0x00, 0xb4, 0x23, 0x00, 0x00, 0xac, 0x23, 0x00, 0x00, 0xa4, 0x23, 0x00, 0x00, 0x9c, 0x23, 0x00, 0x00, 0x94, 0x23, 0x00, 0x00, 0x8c, 0x23, 0x00, 0x00, 0x84, 0x23, 0x00, 0x00, 0x7c, 0x23, 0x00, 0x00, 0x74, 0x23, 0x00, 0x00, 0x6c, 0x23, 0x00, 0x00, 0x64, 0x23, 0x00, 0x00, 0x5c, 0x23, 0x00, 0x00, 0x54, 0x23, 0x00, 0x00, 0x4c, 0x23, 0x00, 0x00, 0x44, 0x23, 0x00, 0x00, 0x3c, 0x23, 0x00, 0x00, 0x34, 0x23, 0x00, 0x00, 0x2c, 0x23, 0x00, 0x00, 0x24, 0x23, 0x00, 0x00, 0x1c, 0x23, 0x00, 0x00, 0x14, 0x23, 0x00, 0x00, 0x0c, 0x23, 0x00, 0x00, 0x04, 0x23, 0x00, 0x00, 0xfc, 0x22, 0x00, 0x00, 0xf4, 0x22, 0x00, 0x00, 0xec, 0x22, 0x00, 0x00, 0xe4, 0x22, 0x00, 0x00, 0xdc, 0x22, 0x00, 0x00, 0xd4, 0x22, 0x00, 0x00, 0xcc, 0x22, 0x00, 0x00, 0xc4, 0x22, 0x00, 0x00, 0xbc, 0x22, 0x00, 0x00, 0xb4, 0x22, 0x00, 0x00, 0xac, 0x22, 0x00, 0x00, 0xa4, 0x22, 0x00, 0x00, 0x9c, 0x22, 0x00, 0x00, 0x94, 0x22, 0x00, 0x00, 0x8c, 0x22, 0x00, 0x00, 0x84, 0x22, 0x00, 0x00, 0x7c, 0x22, 0x00, 0x00, 0x74, 0x22, 0x00, 0x00, 0x6c, 0x22, 0x00, 0x00, 0x64, 0x22, 0x00, 0x00, 0x5c, 0x22, 0x00, 0x00, 0x54, 0x22, 0x00, 0x00, 0x4c, 0x22, 0x00, 0x00, 0x44, 0x22, 0x00, 0x00, 0x3c, 0x22, 0x00, 0x00, 0x34, 0x22, 0x00, 0x00, 0x2c, 0x22, 0x00, 0x00, 0x24, 0x22, 0x00, 0x00, 0x1c, 0x22, 0x00, 0x00, 0x14, 0x22, 0x00, 0x00, 0x0c, 0x22, 0x00, 0x00, 0x04, 0x22, 0x00, 0x00, 0xfc, 0x21, 0x00, 0x00, 0xf4, 0x21, 0x00, 0x00, 0xec, 0x21, 0x00, 0x00, 0xe4, 0x21, 0x00, 0x00, 0xdc, 0x21, 0x00, 0x00, 0xd4, 0x21, 0x00, 0x00, 0xcc, 0x21, 0x00, 0x00, 0xc4, 0x21, 0x00, 0x00, 0xbc, 0x21, 0x00, 0x00, 0xb4, 0x21, 0x00, 0x00, 0xac, 0x21, 0x00, 0x00, 0xa4, 0x21, 0x00, 0x00, 0x9c, 0x21, 0x00, 0x00, 0x94, 0x21, 0x00, 0x00, 0x8c, 0x21, 0x00, 0x00, 0x84, 0x21, 0x00, 0x00, 0x7c, 0x21, 0x00, 0x00, 0x74, 0x21, 0x00, 0x00, 0x6c, 0x21, 0x00, 0x00, 0x64, 0x21, 0x00, 0x00, 0x5c, 0x21, 0x00, 0x00, 0x54, 0x21, 0x00, 0x00, 0x4c, 0x21, 0x00, 0x00, 0x44, 0x21, 0x00, 0x00, 0x3c, 0x21, 0x00, 0x00, 0x34, 0x21, 0x00, 0x00, 0x2c, 0x21, 0x00, 0x00, 0x24, 0x21, 0x00, 0x00, 0x1c, 0x21, 0x00, 0x00, 0x14, 0x21, 0x00, 0x00, 0x0c, 0x21, 0x00, 0x00, 0x04, 0x21, 0x00, 0x00, 0xfc, 0x20, 0x00, 0x00, 0xf4, 0x20, 0x00, 0x00, 0xec, 0x20, 0x00, 0x00, 0xe4, 0x20, 0x00, 0x00, 0xdc, 0x20, 0x00, 0x00, 0xd4, 0x20, 0x00, 0x00, 0xcc, 0x20, 0x00, 0x00, 0xc4, 0x20, 0x00, 0x00, 0xbc, 0x20, 0x00, 0x00, 0xb4, 0x20, 0x00, 0x00, 0xac, 0x20, 0x00, 0x00, 0xa4, 0x20, 0x00, 0x00, 0x9c, 0x20, 0x00, 0x00, 0x94, 0x20, 0x00, 0x00, 0x8c, 0x20, 0x00, 0x00, 0x84, 0x20, 0x00, 0x00, 0x7c, 0x20, 0x00, 0x00, 0x74, 0x20, 0x00, 0x00, 0x6c, 0x20, 0x00, 0x00, 0x64, 0x20, 0x00, 0x00, 0x5c, 0x20, 0x00, 0x00, 0x54, 0x20, 0x00, 0x00, 0x4c, 0x20, 0x00, 0x00, 0x44, 0x20, 0x00, 0x00, 0x3c, 0x20, 0x00, 0x00, 0x34, 0x20, 0x00, 0x00, 0x2c, 0x20, 0x00, 0x00, 0x24, 0x20, 0x00, 0x00, 0x1c, 0x20, 0x00, 0x00, 0x14, 0x20, 0x00, 0x00, 0x0c, 0x20, 0x00, 0x00, 0x04, 0x20, 0x00, 0x00, 0xfc, 0x1f, 0x00, 0x00, 0xf4, 0x1f, 0x00, 0x00, 0xec, 0x1f, 0x00, 0x00, 0xe4, 0x1f, 0x00, 0x00, 0xdc, 0x1f, 0x00, 0x00, 0xd4, 0x1f, 0x00, 0x00, 0xcc, 0x1f, 0x00, 0x00, 0xc4, 0x1f, 0x00, 0x00, 0xbc, 0x1f, 0x00, 0x00, 0xb4, 0x1f, 0x00, 0x00, 0xac, 0x1f, 0x00, 0x00, 0xa4, 0x1f, 0x00, 0x00, 0x9c, 0x1f, 0x00, 0x00, 0x94, 0x1f, 0x00, 0x00, 0x8c, 0x1f, 0x00, 0x00, 0x84, 0x1f, 0x00, 0x00, 0x7c, 0x1f, 0x00, 0x00, 0x74, 0x1f, 0x00, 0x00, 0x6c, 0x1f, 0x00, 0x00, 0x64, 0x1f, 0x00, 0x00, 0x5c, 0x1f, 0x00, 0x00, 0x54, 0x1f, 0x00, 0x00, 0x4c, 0x1f, 0x00, 0x00, 0x44, 0x1f, 0x00, 0x00, 0x3c, 0x1f, 0x00, 0x00, 0x34, 0x1f, 0x00, 0x00, 0x2c, 0x1f, 0x00, 0x00, 0x24, 0x1f, 0x00, 0x00, 0x1c, 0x1f, 0x00, 0x00, 0x14, 0x1f, 0x00, 0x00, 0x0c, 0x1f, 0x00, 0x00, 0x04, 0x1f, 0x00, 0x00, 0xfc, 0x1e, 0x00, 0x00, 0xf4, 0x1e, 0x00, 0x00, 0xec, 0x1e, 0x00, 0x00, 0xe4, 0x1e, 0x00, 0x00, 0xdc, 0x1e, 0x00, 0x00, 0xd4, 0x1e, 0x00, 0x00, 0xcc, 0x1e, 0x00, 0x00, 0xc4, 0x1e, 0x00, 0x00, 0xbc, 0x1e, 0x00, 0x00, 0xb4, 0x1e, 0x00, 0x00, 0xac, 0x1e, 0x00, 0x00, 0xa4, 0x1e, 0x00, 0x00, 0x9c, 0x1e, 0x00, 0x00, 0x94, 0x1e, 0x00, 0x00, 0x8c, 0x1e, 0x00, 0x00, 0x84, 0x1e, 0x00, 0x00, 0x7c, 0x1e, 0x00, 0x00, 0x74, 0x1e, 0x00, 0x00, 0x6c, 0x1e, 0x00, 0x00, 0x64, 0x1e, 0x00, 0x00, 0x5c, 0x1e, 0x00, 0x00, 0x54, 0x1e, 0x00, 0x00, 0x4c, 0x1e, 0x00, 0x00, 0x44, 0x1e, 0x00, 0x00, 0x3c, 0x1e, 0x00, 0x00, 0x34, 0x1e, 0x00, 0x00, 0x2c, 0x1e, 0x00, 0x00, 0x24, 0x1e, 0x00, 0x00, 0x1c, 0x1e, 0x00, 0x00, 0x14, 0x1e, 0x00, 0x00, 0x0c, 0x1e, 0x00, 0x00, 0x04, 0x1e, 0x00, 0x00, 0xfc, 0x1d, 0x00, 0x00, 0xf4, 0x1d, 0x00, 0x00, 0xec, 0x1d, 0x00, 0x00, 0xe4, 0x1d, 0x00, 0x00, 0xdc, 0x1d, 0x00, 0x00, 0xd4, 0x1d, 0x00, 0x00, 0xcc, 0x1d, 0x00, 0x00, 0xc4, 0x1d, 0x00, 0x00, 0xbc, 0x1d, 0x00, 0x00, 0xb4, 0x1d, 0x00, 0x00, 0xac, 0x1d, 0x00, 0x00, 0xa4, 0x1d, 0x00, 0x00, 0x9c, 0x1d, 0x00, 0x00, 0x94, 0x1d, 0x00, 0x00, 0x8c, 0x1d, 0x00, 0x00, 0x84, 0x1d, 0x00, 0x00, 0x7c, 0x1d, 0x00, 0x00, 0x74, 0x1d, 0x00, 0x00, 0x6c, 0x1d, 0x00, 0x00, 0x64, 0x1d, 0x00, 0x00, 0x5c, 0x1d, 0x00, 0x00, 0x54, 0x1d, 0x00, 0x00, 0x4c, 0x1d, 0x00, 0x00, 0x44, 0x1d, 0x00, 0x00, 0x3c, 0x1d, 0x00, 0x00, 0x34, 0x1d, 0x00, 0x00, 0x2c, 0x1d, 0x00, 0x00, 0x24, 0x1d, 0x00, 0x00, 0x1c, 0x1d, 0x00, 0x00, 0x14, 0x1d, 0x00, 0x00, 0x0c, 0x1d, 0x00, 0x00, 0x04, 0x1d, 0x00, 0x00, 0xfc, 0x1c, 0x00, 0x00, 0xf4, 0x1c, 0x00, 0x00, 0xec, 0x1c, 0x00, 0x00, 0xe4, 0x1c, 0x00, 0x00, 0xdc, 0x1c, 0x00, 0x00, 0xd4, 0x1c, 0x00, 0x00, 0xcc, 0x1c, 0x00, 0x00, 0xc4, 0x1c, 0x00, 0x00, 0xbc, 0x1c, 0x00, 0x00, 0xb4, 0x1c, 0x00, 0x00, 0xac, 0x1c, 0x00, 0x00, 0xa4, 0x1c, 0x00, 0x00, 0x9c, 0x1c, 0x00, 0x00, 0x94, 0x1c, 0x00, 0x00, 0x8c, 0x1c, 0x00, 0x00, 0x84, 0x1c, 0x00, 0x00, 0x7c, 0x1c, 0x00, 0x00, 0x74, 0x1c, 0x00, 0x00, 0x6c, 0x1c, 0x00, 0x00, 0x64, 0x1c, 0x00, 0x00, 0x5c, 0x1c, 0x00, 0x00, 0x54, 0x1c, 0x00, 0x00, 0x4c, 0x1c, 0x00, 0x00, 0x44, 0x1c, 0x00, 0x00, 0x3c, 0x1c, 0x00, 0x00, 0x34, 0x1c, 0x00, 0x00, 0x2c, 0x1c, 0x00, 0x00, 0x24, 0x1c, 0x00, 0x00, 0x1c, 0x1c, 0x00, 0x00, 0x14, 0x1c, 0x00, 0x00, 0x0c, 0x1c, 0x00, 0x00, 0x04, 0x1c, 0x00, 0x00, 0xfc, 0x1b, 0x00, 0x00, 0xf4, 0x1b, 0x00, 0x00, 0xec, 0x1b, 0x00, 0x00, 0xe4, 0x1b, 0x00, 0x00, 0xdc, 0x1b, 0x00, 0x00, 0xd4, 0x1b, 0x00, 0x00, 0xcc, 0x1b, 0x00, 0x00, 0xc4, 0x1b, 0x00, 0x00, 0xbc, 0x1b, 0x00, 0x00, 0xb4, 0x1b, 0x00, 0x00, 0xac, 0x1b, 0x00, 0x00, 0xa4, 0x1b, 0x00, 0x00, 0x9c, 0x1b, 0x00, 0x00, 0x94, 0x1b, 0x00, 0x00, 0x8c, 0x1b, 0x00, 0x00, 0x84, 0x1b, 0x00, 0x00, 0x7c, 0x1b, 0x00, 0x00, 0x74, 0x1b, 0x00, 0x00, 0x6c, 0x1b, 0x00, 0x00, 0x64, 0x1b, 0x00, 0x00, 0x5c, 0x1b, 0x00, 0x00, 0x54, 0x1b, 0x00, 0x00, 0x4c, 0x1b, 0x00, 0x00, 0x44, 0x1b, 0x00, 0x00, 0x3c, 0x1b, 0x00, 0x00, 0x34, 0x1b, 0x00, 0x00, 0x2c, 0x1b, 0x00, 0x00, 0x24, 0x1b, 0x00, 0x00, 0x1c, 0x1b, 0x00, 0x00, 0x14, 0x1b, 0x00, 0x00, 0x0c, 0x1b, 0x00, 0x00, 0x04, 0x1b, 0x00, 0x00, 0xfc, 0x1a, 0x00, 0x00, 0xf4, 0x1a, 0x00, 0x00, 0xec, 0x1a, 0x00, 0x00, 0xe4, 0x1a, 0x00, 0x00, 0xdc, 0x1a, 0x00, 0x00, 0xd4, 0x1a, 0x00, 0x00, 0xcc, 0x1a, 0x00, 0x00, 0xc4, 0x1a, 0x00, 0x00, 0xbc, 0x1a, 0x00, 0x00, 0xb4, 0x1a, 0x00, 0x00, 0xac, 0x1a, 0x00, 0x00, 0xa4, 0x1a, 0x00, 0x00, 0x9c, 0x1a, 0x00, 0x00, 0x94, 0x1a, 0x00, 0x00, 0x8c, 0x1a, 0x00, 0x00, 0x84, 0x1a, 0x00, 0x00, 0x7c, 0x1a, 0x00, 0x00, 0x74, 0x1a, 0x00, 0x00, 0x6c, 0x1a, 0x00, 0x00, 0x64, 0x1a, 0x00, 0x00, 0x5c, 0x1a, 0x00, 0x00, 0x54, 0x1a, 0x00, 0x00, 0x4c, 0x1a, 0x00, 0x00, 0x44, 0x1a, 0x00, 0x00, 0x3c, 0x1a, 0x00, 0x00, 0x34, 0x1a, 0x00, 0x00, 0x2c, 0x1a, 0x00, 0x00, 0x24, 0x1a, 0x00, 0x00, 0x1c, 0x1a, 0x00, 0x00, 0x14, 0x1a, 0x00, 0x00, 0x0c, 0x1a, 0x00, 0x00, 0x04, 0x1a, 0x00, 0x00, 0xfc, 0x19, 0x00, 0x00, 0xf4, 0x19, 0x00, 0x00, 0xec, 0x19, 0x00, 0x00, 0xe4, 0x19, 0x00, 0x00, 0xdc, 0x19, 0x00, 0x00, 0xd4, 0x19, 0x00, 0x00, 0xcc, 0x19, 0x00, 0x00, 0xc4, 0x19, 0x00, 0x00, 0xbc, 0x19, 0x00, 0x00, 0xb4, 0x19, 0x00, 0x00, 0xac, 0x19, 0x00, 0x00, 0xa4, 0x19, 0x00, 0x00, 0x9c, 0x19, 0x00, 0x00, 0x94, 0x19, 0x00, 0x00, 0x8c, 0x19, 0x00, 0x00, 0x84, 0x19, 0x00, 0x00, 0x7c, 0x19, 0x00, 0x00, 0x74, 0x19, 0x00, 0x00, 0x6c, 0x19, 0x00, 0x00, 0x64, 0x19, 0x00, 0x00, 0x5c, 0x19, 0x00, 0x00, 0x54, 0x19, 0x00, 0x00, 0x4c, 0x19, 0x00, 0x00, 0x44, 0x19, 0x00, 0x00, 0x3c, 0x19, 0x00, 0x00, 0x34, 0x19, 0x00, 0x00, 0x2c, 0x19, 0x00, 0x00, 0x24, 0x19, 0x00, 0x00, 0x1c, 0x19, 0x00, 0x00, 0x14, 0x19, 0x00, 0x00, 0x0c, 0x19, 0x00, 0x00, 0x04, 0x19, 0x00, 0x00, 0xfc, 0x18, 0x00, 0x00, 0xf4, 0x18, 0x00, 0x00, 0xec, 0x18, 0x00, 0x00, 0xe4, 0x18, 0x00, 0x00, 0xdc, 0x18, 0x00, 0x00, 0xd4, 0x18, 0x00, 0x00, 0xcc, 0x18, 0x00, 0x00, 0xc4, 0x18, 0x00, 0x00, 0xbc, 0x18, 0x00, 0x00, 0xb4, 0x18, 0x00, 0x00, 0xac, 0x18, 0x00, 0x00, 0xa4, 0x18, 0x00, 0x00, 0x9c, 0x18, 0x00, 0x00, 0x94, 0x18, 0x00, 0x00, 0x8c, 0x18, 0x00, 0x00, 0x84, 0x18, 0x00, 0x00, 0x7c, 0x18, 0x00, 0x00, 0x74, 0x18, 0x00, 0x00, 0x6c, 0x18, 0x00, 0x00, 0x64, 0x18, 0x00, 0x00, 0x5c, 0x18, 0x00, 0x00, 0x54, 0x18, 0x00, 0x00, 0x4c, 0x18, 0x00, 0x00, 0x44, 0x18, 0x00, 0x00, 0x3c, 0x18, 0x00, 0x00, 0x34, 0x18, 0x00, 0x00, 0x2c, 0x18, 0x00, 0x00, 0x24, 0x18, 0x00, 0x00, 0x1c, 0x18, 0x00, 0x00, 0x14, 0x18, 0x00, 0x00, 0x0c, 0x18, 0x00, 0x00, 0x04, 0x18, 0x00, 0x00, 0xfc, 0x17, 0x00, 0x00, 0xf4, 0x17, 0x00, 0x00, 0xec, 0x17, 0x00, 0x00, 0xe4, 0x17, 0x00, 0x00, 0xdc, 0x17, 0x00, 0x00, 0xd4, 0x17, 0x00, 0x00, 0xcc, 0x17, 0x00, 0x00, 0xc4, 0x17, 0x00, 0x00, 0xbc, 0x17, 0x00, 0x00, 0xb4, 0x17, 0x00, 0x00, 0xac, 0x17, 0x00, 0x00, 0xa4, 0x17, 0x00, 0x00, 0x9c, 0x17, 0x00, 0x00, 0x94, 0x17, 0x00, 0x00, 0x8c, 0x17, 0x00, 0x00, 0x84, 0x17, 0x00, 0x00, 0x7c, 0x17, 0x00, 0x00, 0x74, 0x17, 0x00, 0x00, 0x6c, 0x17, 0x00, 0x00, 0x64, 0x17, 0x00, 0x00, 0x5c, 0x17, 0x00, 0x00, 0x54, 0x17, 0x00, 0x00, 0x4c, 0x17, 0x00, 0x00, 0x44, 0x17, 0x00, 0x00, 0x3c, 0x17, 0x00, 0x00, 0x34, 0x17, 0x00, 0x00, 0x2c, 0x17, 0x00, 0x00, 0x24, 0x17, 0x00, 0x00, 0x1c, 0x17, 0x00, 0x00, 0x14, 0x17, 0x00, 0x00, 0x0c, 0x17, 0x00, 0x00, 0x04, 0x17, 0x00, 0x00, 0xfc, 0x16, 0x00, 0x00, 0xf4, 0x16, 0x00, 0x00, 0xec, 0x16, 0x00, 0x00, 0xe4, 0x16, 0x00, 0x00, 0xdc, 0x16, 0x00, 0x00, 0xd4, 0x16, 0x00, 0x00, 0xcc, 0x16, 0x00, 0x00, 0xc4, 0x16, 0x00, 0x00, 0xbc, 0x16, 0x00, 0x00, 0xb4, 0x16, 0x00, 0x00, 0xac, 0x16, 0x00, 0x00, 0xa4, 0x16, 0x00, 0x00, 0x9c, 0x16, 0x00, 0x00, 0x94, 0x16, 0x00, 0x00, 0x8c, 0x16, 0x00, 0x00, 0x84, 0x16, 0x00, 0x00, 0x7c, 0x16, 0x00, 0x00, 0x74, 0x16, 0x00, 0x00, 0x6c, 0x16, 0x00, 0x00, 0x64, 0x16, 0x00, 0x00, 0x5c, 0x16, 0x00, 0x00, 0x54, 0x16, 0x00, 0x00, 0x4c, 0x16, 0x00, 0x00, 0x44, 0x16, 0x00, 0x00, 0x3c, 0x16, 0x00, 0x00, 0x34, 0x16, 0x00, 0x00, 0x2c, 0x16, 0x00, 0x00, 0x24, 0x16, 0x00, 0x00, 0x1c, 0x16, 0x00, 0x00, 0x14, 0x16, 0x00, 0x00, 0x0c, 0x16, 0x00, 0x00, 0x04, 0x16, 0x00, 0x00, 0xfc, 0x15, 0x00, 0x00, 0xf4, 0x15, 0x00, 0x00, 0xec, 0x15, 0x00, 0x00, 0xe4, 0x15, 0x00, 0x00, 0xdc, 0x15, 0x00, 0x00, 0xd4, 0x15, 0x00, 0x00, 0xcc, 0x15, 0x00, 0x00, 0xc4, 0x15, 0x00, 0x00, 0xbc, 0x15, 0x00, 0x00, 0xb4, 0x15, 0x00, 0x00, 0xac, 0x15, 0x00, 0x00, 0xa4, 0x15, 0x00, 0x00, 0x9c, 0x15, 0x00, 0x00, 0x94, 0x15, 0x00, 0x00, 0x8c, 0x15, 0x00, 0x00, 0x84, 0x15, 0x00, 0x00, 0x7c, 0x15, 0x00, 0x00, 0x74, 0x15, 0x00, 0x00, 0x6c, 0x15, 0x00, 0x00, 0x64, 0x15, 0x00, 0x00, 0x5c, 0x15, 0x00, 0x00, 0x54, 0x15, 0x00, 0x00, 0x4c, 0x15, 0x00, 0x00, 0x44, 0x15, 0x00, 0x00, 0x3c, 0x15, 0x00, 0x00, 0x34, 0x15, 0x00, 0x00, 0x2c, 0x15, 0x00, 0x00, 0x24, 0x15, 0x00, 0x00, 0x1c, 0x15, 0x00, 0x00, 0x14, 0x15, 0x00, 0x00, 0x0c, 0x15, 0x00, 0x00, 0x04, 0x15, 0x00, 0x00, 0xfc, 0x14, 0x00, 0x00, 0xf4, 0x14, 0x00, 0x00, 0xec, 0x14, 0x00, 0x00, 0xe4, 0x14, 0x00, 0x00, 0xdc, 0x14, 0x00, 0x00, 0xd4, 0x14, 0x00, 0x00, 0xcc, 0x14, 0x00, 0x00, 0xc4, 0x14, 0x00, 0x00, 0xbc, 0x14, 0x00, 0x00, 0xb4, 0x14, 0x00, 0x00, 0xac, 0x14, 0x00, 0x00, 0xa4, 0x14, 0x00, 0x00, 0x9c, 0x14, 0x00, 0x00, 0x94, 0x14, 0x00, 0x00, 0x8c, 0x14, 0x00, 0x00, 0x84, 0x14, 0x00, 0x00, 0x7c, 0x14, 0x00, 0x00, 0x74, 0x14, 0x00, 0x00, 0x6c, 0x14, 0x00, 0x00, 0x64, 0x14, 0x00, 0x00, 0x5c, 0x14, 0x00, 0x00, 0x54, 0x14, 0x00, 0x00, 0x4c, 0x14, 0x00, 0x00, 0x44, 0x14, 0x00, 0x00, 0x3c, 0x14, 0x00, 0x00, 0x34, 0x14, 0x00, 0x00, 0x2c, 0x14, 0x00, 0x00, 0x24, 0x14, 0x00, 0x00, 0x1c, 0x14, 0x00, 0x00, 0x14, 0x14, 0x00, 0x00, 0x0c, 0x14, 0x00, 0x00, 0x04, 0x14, 0x00, 0x00, 0xfc, 0x13, 0x00, 0x00, 0xf4, 0x13, 0x00, 0x00, 0xec, 0x13, 0x00, 0x00, 0xe4, 0x13, 0x00, 0x00, 0xdc, 0x13, 0x00, 0x00, 0xd4, 0x13, 0x00, 0x00, 0xcc, 0x13, 0x00, 0x00, 0xc4, 0x13, 0x00, 0x00, 0xbc, 0x13, 0x00, 0x00, 0xb4, 0x13, 0x00, 0x00, 0xac, 0x13, 0x00, 0x00, 0xa4, 0x13, 0x00, 0x00, 0x9c, 0x13, 0x00, 0x00, 0x94, 0x13, 0x00, 0x00, 0x8c, 0x13, 0x00, 0x00, 0x84, 0x13, 0x00, 0x00, 0x7c, 0x13, 0x00, 0x00, 0x74, 0x13, 0x00, 0x00, 0x6c, 0x13, 0x00, 0x00, 0x64, 0x13, 0x00, 0x00, 0x5c, 0x13, 0x00, 0x00, 0x54, 0x13, 0x00, 0x00, 0x4c, 0x13, 0x00, 0x00, 0x44, 0x13, 0x00, 0x00, 0x3c, 0x13, 0x00, 0x00, 0x34, 0x13, 0x00, 0x00, 0x2c, 0x13, 0x00, 0x00, 0x24, 0x13, 0x00, 0x00, 0x1c, 0x13, 0x00, 0x00, 0x14, 0x13, 0x00, 0x00, 0x0c, 0x13, 0x00, 0x00, 0x04, 0x13, 0x00, 0x00, 0xfc, 0x12, 0x00, 0x00, 0xf4, 0x12, 0x00, 0x00, 0xec, 0x12, 0x00, 0x00, 0xe4, 0x12, 0x00, 0x00, 0xdc, 0x12, 0x00, 0x00, 0xd4, 0x12, 0x00, 0x00, 0xcc, 0x12, 0x00, 0x00, 0xc4, 0x12, 0x00, 0x00, 0xbc, 0x12, 0x00, 0x00, 0xb4, 0x12, 0x00, 0x00, 0xac, 0x12, 0x00, 0x00, 0xa4, 0x12, 0x00, 0x00, 0x9c, 0x12, 0x00, 0x00, 0x94, 0x12, 0x00, 0x00, 0x8c, 0x12, 0x00, 0x00, 0x84, 0x12, 0x00, 0x00, 0x7c, 0x12, 0x00, 0x00, 0x74, 0x12, 0x00, 0x00, 0x6c, 0x12, 0x00, 0x00, 0x64, 0x12, 0x00, 0x00, 0x5c, 0x12, 0x00, 0x00, 0x54, 0x12, 0x00, 0x00, 0x4c, 0x12, 0x00, 0x00, 0x44, 0x12, 0x00, 0x00, 0x3c, 0x12, 0x00, 0x00, 0x34, 0x12, 0x00, 0x00, 0x2c, 0x12, 0x00, 0x00, 0x24, 0x12, 0x00, 0x00, 0x1c, 0x12, 0x00, 0x00, 0x14, 0x12, 0x00, 0x00, 0x0c, 0x12, 0x00, 0x00, 0x04, 0x12, 0x00, 0x00, 0xfc, 0x11, 0x00, 0x00, 0xf4, 0x11, 0x00, 0x00, 0xec, 0x11, 0x00, 0x00, 0xe4, 0x11, 0x00, 0x00, 0xdc, 0x11, 0x00, 0x00, 0xd4, 0x11, 0x00, 0x00, 0xcc, 0x11, 0x00, 0x00, 0xc4, 0x11, 0x00, 0x00, 0xbc, 0x11, 0x00, 0x00, 0xb4, 0x11, 0x00, 0x00, 0xac, 0x11, 0x00, 0x00, 0xa4, 0x11, 0x00, 0x00, 0x9c, 0x11, 0x00, 0x00, 0x94, 0x11, 0x00, 0x00, 0x8c, 0x11, 0x00, 0x00, 0x84, 0x11, 0x00, 0x00, 0x7c, 0x11, 0x00, 0x00, 0x74, 0x11, 0x00, 0x00, 0x6c, 0x11, 0x00, 0x00, 0x64, 0x11, 0x00, 0x00, 0x5c, 0x11, 0x00, 0x00, 0x54, 0x11, 0x00, 0x00, 0x4c, 0x11, 0x00, 0x00, 0x44, 0x11, 0x00, 0x00, 0x3c, 0x11, 0x00, 0x00, 0x34, 0x11, 0x00, 0x00, 0x2c, 0x11, 0x00, 0x00, 0x24, 0x11, 0x00, 0x00, 0x1c, 0x11, 0x00, 0x00, 0x14, 0x11, 0x00, 0x00, 0x0c, 0x11, 0x00, 0x00, 0x04, 0x11, 0x00, 0x00, 0xfc, 0x10, 0x00, 0x00, 0xf4, 0x10, 0x00, 0x00, 0xec, 0x10, 0x00, 0x00, 0xe4, 0x10, 0x00, 0x00, 0xdc, 0x10, 0x00, 0x00, 0xd4, 0x10, 0x00, 0x00, 0xcc, 0x10, 0x00, 0x00, 0xc4, 0x10, 0x00, 0x00, 0xbc, 0x10, 0x00, 0x00, 0xb4, 0x10, 0x00, 0x00, 0xac, 0x10, 0x00, 0x00, 0xa4, 0x10, 0x00, 0x00, 0x9c, 0x10, 0x00, 0x00, 0x94, 0x10, 0x00, 0x00, 0x8c, 0x10, 0x00, 0x00, 0x84, 0x10, 0x00, 0x00, 0x7c, 0x10, 0x00, 0x00, 0x74, 0x10, 0x00, 0x00, 0x6c, 0x10, 0x00, 0x00, 0x64, 0x10, 0x00, 0x00, 0x5c, 0x10, 0x00, 0x00, 0x54, 0x10, 0x00, 0x00, 0x4c, 0x10, 0x00, 0x00, 0x44, 0x10, 0x00, 0x00, 0x3c, 0x10, 0x00, 0x00, 0x34, 0x10, 0x00, 0x00, 0x2c, 0x10, 0x00, 0x00, 0x24, 0x10, 0x00, 0x00, 0x1c, 0x10, 0x00, 0x00, 0x14, 0x10, 0x00, 0x00, 0x0c, 0x10, 0x00, 0x00, 0x04, 0x10, 0x00, 0x00, 0xfc, 0x0f, 0x00, 0x00, 0xf4, 0x0f, 0x00, 0x00, 0xec, 0x0f, 0x00, 0x00, 0xe4, 0x0f, 0x00, 0x00, 0xdc, 0x0f, 0x00, 0x00, 0xd4, 0x0f, 0x00, 0x00, 0xcc, 0x0f, 0x00, 0x00, 0xc4, 0x0f, 0x00, 0x00, 0xbc, 0x0f, 0x00, 0x00, 0xb4, 0x0f, 0x00, 0x00, 0xac, 0x0f, 0x00, 0x00, 0xa4, 0x0f, 0x00, 0x00, 0x9c, 0x0f, 0x00, 0x00, 0x94, 0x0f, 0x00, 0x00, 0x8c, 0x0f, 0x00, 0x00, 0x84, 0x0f, 0x00, 0x00, 0x7c, 0x0f, 0x00, 0x00, 0x74, 0x0f, 0x00, 0x00, 0x6c, 0x0f, 0x00, 0x00, 0x64, 0x0f, 0x00, 0x00, 0x5c, 0x0f, 0x00, 0x00, 0x54, 0x0f, 0x00, 0x00, 0x4c, 0x0f, 0x00, 0x00, 0x44, 0x0f, 0x00, 0x00, 0x3c, 0x0f, 0x00, 0x00, 0x34, 0x0f, 0x00, 0x00, 0x2c, 0x0f, 0x00, 0x00, 0x24, 0x0f, 0x00, 0x00, 0x1c, 0x0f, 0x00, 0x00, 0x14, 0x0f, 0x00, 0x00, 0x0c, 0x0f, 0x00, 0x00, 0x04, 0x0f, 0x00, 0x00, 0xfc, 0x0e, 0x00, 0x00, 0xf4, 0x0e, 0x00, 0x00, 0xec, 0x0e, 0x00, 0x00, 0xe4, 0x0e, 0x00, 0x00, 0xdc, 0x0e, 0x00, 0x00, 0xd4, 0x0e, 0x00, 0x00, 0xcc, 0x0e, 0x00, 0x00, 0xc4, 0x0e, 0x00, 0x00, 0xbc, 0x0e, 0x00, 0x00, 0xb4, 0x0e, 0x00, 0x00, 0xac, 0x0e, 0x00, 0x00, 0xa4, 0x0e, 0x00, 0x00, 0x9c, 0x0e, 0x00, 0x00, 0x94, 0x0e, 0x00, 0x00, 0x8c, 0x0e, 0x00, 0x00, 0x84, 0x0e, 0x00, 0x00, 0x7c, 0x0e, 0x00, 0x00, 0x74, 0x0e, 0x00, 0x00, 0x6c, 0x0e, 0x00, 0x00, 0x64, 0x0e, 0x00, 0x00, 0x5c, 0x0e, 0x00, 0x00, 0x54, 0x0e, 0x00, 0x00, 0x4c, 0x0e, 0x00, 0x00, 0x44, 0x0e, 0x00, 0x00, 0x3c, 0x0e, 0x00, 0x00, 0x34, 0x0e, 0x00, 0x00, 0x2c, 0x0e, 0x00, 0x00, 0x24, 0x0e, 0x00, 0x00, 0x1c, 0x0e, 0x00, 0x00, 0x14, 0x0e, 0x00, 0x00, 0x0c, 0x0e, 0x00, 0x00, 0x04, 0x0e, 0x00, 0x00, 0xfc, 0x0d, 0x00, 0x00, 0xf4, 0x0d, 0x00, 0x00, 0xec, 0x0d, 0x00, 0x00, 0xe4, 0x0d, 0x00, 0x00, 0xdc, 0x0d, 0x00, 0x00, 0xd4, 0x0d, 0x00, 0x00, 0xcc, 0x0d, 0x00, 0x00, 0xc4, 0x0d, 0x00, 0x00, 0xbc, 0x0d, 0x00, 0x00, 0xb4, 0x0d, 0x00, 0x00, 0xac, 0x0d, 0x00, 0x00, 0xa4, 0x0d, 0x00, 0x00, 0x9c, 0x0d, 0x00, 0x00, 0x94, 0x0d, 0x00, 0x00, 0x8c, 0x0d, 0x00, 0x00, 0x84, 0x0d, 0x00, 0x00, 0x7c, 0x0d, 0x00, 0x00, 0x74, 0x0d, 0x00, 0x00, 0x6c, 0x0d, 0x00, 0x00, 0x64, 0x0d, 0x00, 0x00, 0x5c, 0x0d, 0x00, 0x00, 0x54, 0x0d, 0x00, 0x00, 0x4c, 0x0d, 0x00, 0x00, 0x44, 0x0d, 0x00, 0x00, 0x3c, 0x0d, 0x00, 0x00, 0x34, 0x0d, 0x00, 0x00, 0x2c, 0x0d, 0x00, 0x00, 0x24, 0x0d, 0x00, 0x00, 0x1c, 0x0d, 0x00, 0x00, 0x14, 0x0d, 0x00, 0x00, 0x0c, 0x0d, 0x00, 0x00, 0x04, 0x0d, 0x00, 0x00, 0xfc, 0x0c, 0x00, 0x00, 0xf4, 0x0c, 0x00, 0x00, 0xec, 0x0c, 0x00, 0x00, 0xe4, 0x0c, 0x00, 0x00, 0xdc, 0x0c, 0x00, 0x00, 0xd4, 0x0c, 0x00, 0x00, 0xcc, 0x0c, 0x00, 0x00, 0xc4, 0x0c, 0x00, 0x00, 0xbc, 0x0c, 0x00, 0x00, 0xb4, 0x0c, 0x00, 0x00, 0xac, 0x0c, 0x00, 0x00, 0xa4, 0x0c, 0x00, 0x00, 0x9c, 0x0c, 0x00, 0x00, 0x94, 0x0c, 0x00, 0x00, 0x8c, 0x0c, 0x00, 0x00, 0x84, 0x0c, 0x00, 0x00, 0x7c, 0x0c, 0x00, 0x00, 0x74, 0x0c, 0x00, 0x00, 0x6c, 0x0c, 0x00, 0x00, 0x64, 0x0c, 0x00, 0x00, 0x5c, 0x0c, 0x00, 0x00, 0x54, 0x0c, 0x00, 0x00, 0x4c, 0x0c, 0x00, 0x00, 0x44, 0x0c, 0x00, 0x00, 0x3c, 0x0c, 0x00, 0x00, 0x34, 0x0c, 0x00, 0x00, 0x2c, 0x0c, 0x00, 0x00, 0x24, 0x0c, 0x00, 0x00, 0x1c, 0x0c, 0x00, 0x00, 0x14, 0x0c, 0x00, 0x00, 0x0c, 0x0c, 0x00, 0x00, 0x04, 0x0c, 0x00, 0x00, 0xfc, 0x0b, 0x00, 0x00, 0xf4, 0x0b, 0x00, 0x00, 0xec, 0x0b, 0x00, 0x00, 0xe4, 0x0b, 0x00, 0x00, 0xdc, 0x0b, 0x00, 0x00, 0xd4, 0x0b, 0x00, 0x00, 0xcc, 0x0b, 0x00, 0x00, 0xc4, 0x0b, 0x00, 0x00, 0xbc, 0x0b, 0x00, 0x00, 0xb4, 0x0b, 0x00, 0x00, 0xac, 0x0b, 0x00, 0x00, 0xa4, 0x0b, 0x00, 0x00, 0x9c, 0x0b, 0x00, 0x00, 0x94, 0x0b, 0x00, 0x00, 0x8c, 0x0b, 0x00, 0x00, 0x84, 0x0b, 0x00, 0x00, 0x7c, 0x0b, 0x00, 0x00, 0x74, 0x0b, 0x00, 0x00, 0x6c, 0x0b, 0x00, 0x00, 0x64, 0x0b, 0x00, 0x00, 0x5c, 0x0b, 0x00, 0x00, 0x54, 0x0b, 0x00, 0x00, 0x4c, 0x0b, 0x00, 0x00, 0x44, 0x0b, 0x00, 0x00, 0x3c, 0x0b, 0x00, 0x00, 0x34, 0x0b, 0x00, 0x00, 0x2c, 0x0b, 0x00, 0x00, 0x24, 0x0b, 0x00, 0x00, 0x1c, 0x0b, 0x00, 0x00, 0x14, 0x0b, 0x00, 0x00, 0x0c, 0x0b, 0x00, 0x00, 0x04, 0x0b, 0x00, 0x00, 0xfc, 0x0a, 0x00, 0x00, 0xf4, 0x0a, 0x00, 0x00, 0xec, 0x0a, 0x00, 0x00, 0xe4, 0x0a, 0x00, 0x00, 0xdc, 0x0a, 0x00, 0x00, 0xd4, 0x0a, 0x00, 0x00, 0xcc, 0x0a, 0x00, 0x00, 0xc4, 0x0a, 0x00, 0x00, 0xbc, 0x0a, 0x00, 0x00, 0xb4, 0x0a, 0x00, 0x00, 0xac, 0x0a, 0x00, 0x00, 0xa4, 0x0a, 0x00, 0x00, 0x9c, 0x0a, 0x00, 0x00, 0x94, 0x0a, 0x00, 0x00, 0x8c, 0x0a, 0x00, 0x00, 0x84, 0x0a, 0x00, 0x00, 0x7c, 0x0a, 0x00, 0x00, 0x74, 0x0a, 0x00, 0x00, 0x6c, 0x0a, 0x00, 0x00, 0x64, 0x0a, 0x00, 0x00, 0x5c, 0x0a, 0x00, 0x00, 0x54, 0x0a, 0x00, 0x00, 0x4c, 0x0a, 0x00, 0x00, 0x44, 0x0a, 0x00, 0x00, 0x3c, 0x0a, 0x00, 0x00, 0x34, 0x0a, 0x00, 0x00, 0x2c, 0x0a, 0x00, 0x00, 0x24, 0x0a, 0x00, 0x00, 0x1c, 0x0a, 0x00, 0x00, 0x14, 0x0a, 0x00, 0x00, 0x0c, 0x0a, 0x00, 0x00, 0x04, 0x0a, 0x00, 0x00, 0xfc, 0x09, 0x00, 0x00, 0xf4, 0x09, 0x00, 0x00, 0xec, 0x09, 0x00, 0x00, 0xe4, 0x09, 0x00, 0x00, 0xdc, 0x09, 0x00, 0x00, 0xd4, 0x09, 0x00, 0x00, 0xcc, 0x09, 0x00, 0x00, 0xc4, 0x09, 0x00, 0x00, 0xbc, 0x09, 0x00, 0x00, 0xb4, 0x09, 0x00, 0x00, 0xac, 0x09, 0x00, 0x00, 0xa4, 0x09, 0x00, 0x00, 0x9c, 0x09, 0x00, 0x00, 0x94, 0x09, 0x00, 0x00, 0x8c, 0x09, 0x00, 0x00, 0x84, 0x09, 0x00, 0x00, 0x7c, 0x09, 0x00, 0x00, 0x74, 0x09, 0x00, 0x00, 0x6c, 0x09, 0x00, 0x00, 0x64, 0x09, 0x00, 0x00, 0x5c, 0x09, 0x00, 0x00, 0x54, 0x09, 0x00, 0x00, 0x4c, 0x09, 0x00, 0x00, 0x44, 0x09, 0x00, 0x00, 0x3c, 0x09, 0x00, 0x00, 0x34, 0x09, 0x00, 0x00, 0x2c, 0x09, 0x00, 0x00, 0x24, 0x09, 0x00, 0x00, 0x1c, 0x09, 0x00, 0x00, 0x14, 0x09, 0x00, 0x00, 0x0c, 0x09, 0x00, 0x00, 0x04, 0x09, 0x00, 0x00, 0xfc, 0x08, 0x00, 0x00, 0xf4, 0x08, 0x00, 0x00, 0xec, 0x08, 0x00, 0x00, 0xe4, 0x08, 0x00, 0x00, 0xdc, 0x08, 0x00, 0x00, 0xd4, 0x08, 0x00, 0x00, 0xcc, 0x08, 0x00, 0x00, 0xc4, 0x08, 0x00, 0x00, 0xbc, 0x08, 0x00, 0x00, 0xb4, 0x08, 0x00, 0x00, 0xac, 0x08, 0x00, 0x00, 0xa4, 0x08, 0x00, 0x00, 0x9c, 0x08, 0x00, 0x00, 0x94, 0x08, 0x00, 0x00, 0x8c, 0x08, 0x00, 0x00, 0x84, 0x08, 0x00, 0x00, 0x7c, 0x08, 0x00, 0x00, 0x74, 0x08, 0x00, 0x00, 0x6c, 0x08, 0x00, 0x00, 0x64, 0x08, 0x00, 0x00, 0x5c, 0x08, 0x00, 0x00, 0x54, 0x08, 0x00, 0x00, 0x4c, 0x08, 0x00, 0x00, 0x44, 0x08, 0x00, 0x00, 0x3c, 0x08, 0x00, 0x00, 0x34, 0x08, 0x00, 0x00, 0x2c, 0x08, 0x00, 0x00, 0x24, 0x08, 0x00, 0x00, 0x1c, 0x08, 0x00, 0x00, 0x14, 0x08, 0x00, 0x00, 0x0c, 0x08, 0x00, 0x00, 0x04, 0x08, 0x00, 0x00, 0xfc, 0x07, 0x00, 0x00, 0xf4, 0x07, 0x00, 0x00, 0xec, 0x07, 0x00, 0x00, 0xe4, 0x07, 0x00, 0x00, 0xdc, 0x07, 0x00, 0x00, 0xd4, 0x07, 0x00, 0x00, 0xcc, 0x07, 0x00, 0x00, 0xc4, 0x07, 0x00, 0x00, 0xbc, 0x07, 0x00, 0x00, 0xb4, 0x07, 0x00, 0x00, 0xac, 0x07, 0x00, 0x00, 0xa4, 0x07, 0x00, 0x00, 0x9c, 0x07, 0x00, 0x00, 0x94, 0x07, 0x00, 0x00, 0x8c, 0x07, 0x00, 0x00, 0x84, 0x07, 0x00, 0x00, 0x7c, 0x07, 0x00, 0x00, 0x74, 0x07, 0x00, 0x00, 0x6c, 0x07, 0x00, 0x00, 0x64, 0x07, 0x00, 0x00, 0x5c, 0x07, 0x00, 0x00, 0x54, 0x07, 0x00, 0x00, 0x4c, 0x07, 0x00, 0x00, 0x44, 0x07, 0x00, 0x00, 0x3c, 0x07, 0x00, 0x00, 0x34, 0x07, 0x00, 0x00, 0x2c, 0x07, 0x00, 0x00, 0x24, 0x07, 0x00, 0x00, 0x1c, 0x07, 0x00, 0x00, 0x14, 0x07, 0x00, 0x00, 0x0c, 0x07, 0x00, 0x00, 0x04, 0x07, 0x00, 0x00, 0xfc, 0x06, 0x00, 0x00, 0xf4, 0x06, 0x00, 0x00, 0xec, 0x06, 0x00, 0x00, 0xe4, 0x06, 0x00, 0x00, 0xdc, 0x06, 0x00, 0x00, 0xd4, 0x06, 0x00, 0x00, 0xcc, 0x06, 0x00, 0x00, 0xc4, 0x06, 0x00, 0x00, 0xbc, 0x06, 0x00, 0x00, 0xb4, 0x06, 0x00, 0x00, 0xac, 0x06, 0x00, 0x00, 0xa4, 0x06, 0x00, 0x00, 0x9c, 0x06, 0x00, 0x00, 0x94, 0x06, 0x00, 0x00, 0x8c, 0x06, 0x00, 0x00, 0x84, 0x06, 0x00, 0x00, 0x7c, 0x06, 0x00, 0x00, 0x74, 0x06, 0x00, 0x00, 0x6c, 0x06, 0x00, 0x00, 0x64, 0x06, 0x00, 0x00, 0x5c, 0x06, 0x00, 0x00, 0x54, 0x06, 0x00, 0x00, 0x4c, 0x06, 0x00, 0x00, 0x44, 0x06, 0x00, 0x00, 0x3c, 0x06, 0x00, 0x00, 0x34, 0x06, 0x00, 0x00, 0x2c, 0x06, 0x00, 0x00, 0x24, 0x06, 0x00, 0x00, 0x1c, 0x06, 0x00, 0x00, 0x14, 0x06, 0x00, 0x00, 0x0c, 0x06, 0x00, 0x00, 0x04, 0x06, 0x00, 0x00, 0xfc, 0x05, 0x00, 0x00, 0xf4, 0x05, 0x00, 0x00, 0xec, 0x05, 0x00, 0x00, 0xe4, 0x05, 0x00, 0x00, 0xdc, 0x05, 0x00, 0x00, 0xd4, 0x05, 0x00, 0x00, 0xcc, 0x05, 0x00, 0x00, 0xc4, 0x05, 0x00, 0x00, 0xbc, 0x05, 0x00, 0x00, 0xb4, 0x05, 0x00, 0x00, 0xac, 0x05, 0x00, 0x00, 0xa4, 0x05, 0x00, 0x00, 0x9c, 0x05, 0x00, 0x00, 0x94, 0x05, 0x00, 0x00, 0x8c, 0x05, 0x00, 0x00, 0x84, 0x05, 0x00, 0x00, 0x7c, 0x05, 0x00, 0x00, 0x74, 0x05, 0x00, 0x00, 0x6c, 0x05, 0x00, 0x00, 0x64, 0x05, 0x00, 0x00, 0x5c, 0x05, 0x00, 0x00, 0x54, 0x05, 0x00, 0x00, 0x4c, 0x05, 0x00, 0x00, 0x44, 0x05, 0x00, 0x00, 0x3c, 0x05, 0x00, 0x00, 0x34, 0x05, 0x00, 0x00, 0x2c, 0x05, 0x00, 0x00, 0x24, 0x05, 0x00, 0x00, 0x1c, 0x05, 0x00, 0x00, 0x14, 0x05, 0x00, 0x00, 0x0c, 0x05, 0x00, 0x00, 0x04, 0x05, 0x00, 0x00, 0xfc, 0x04, 0x00, 0x00, 0xf4, 0x04, 0x00, 0x00, 0xec, 0x04, 0x00, 0x00, 0xe4, 0x04, 0x00, 0x00, 0xdc, 0x04, 0x00, 0x00, 0xd4, 0x04, 0x00, 0x00, 0xcc, 0x04, 0x00, 0x00, 0xc4, 0x04, 0x00, 0x00, 0xbc, 0x04, 0x00, 0x00, 0xb4, 0x04, 0x00, 0x00, 0xac, 0x04, 0x00, 0x00, 0xa4, 0x04, 0x00, 0x00, 0x9c, 0x04, 0x00, 0x00, 0x94, 0x04, 0x00, 0x00, 0x8c, 0x04, 0x00, 0x00, 0x84, 0x04, 0x00, 0x00, 0x7c, 0x04, 0x00, 0x00, 0x74, 0x04, 0x00, 0x00, 0x6c, 0x04, 0x00, 0x00, 0x64, 0x04, 0x00, 0x00, 0x5c, 0x04, 0x00, 0x00, 0x54, 0x04, 0x00, 0x00, 0x4c, 0x04, 0x00, 0x00, 0x44, 0x04, 0x00, 0x00, 0x3c, 0x04, 0x00, 0x00, 0x34, 0x04, 0x00, 0x00, 0x2c, 0x04, 0x00, 0x00, 0x24, 0x04, 0x00, 0x00, 0x1c, 0x04, 0x00, 0x00, 0x14, 0x04, 0x00, 0x00, 0x0c, 0x04, 0x00, 0x00, 0x04, 0x04, 0x00, 0x00, 0xfc, 0x03, 0x00, 0x00, 0xf4, 0x03, 0x00, 0x00, 0xec, 0x03, 0x00, 0x00, 0xe4, 0x03, 0x00, 0x00, 0xdc, 0x03, 0x00, 0x00, 0xd4, 0x03, 0x00, 0x00, 0xcc, 0x03, 0x00, 0x00, 0xc4, 0x03, 0x00, 0x00, 0xbc, 0x03, 0x00, 0x00, 0xb4, 0x03, 0x00, 0x00, 0xac, 0x03, 0x00, 0x00, 0xa4, 0x03, 0x00, 0x00, 0x9c, 0x03, 0x00, 0x00, 0x94, 0x03, 0x00, 0x00, 0x8c, 0x03, 0x00, 0x00, 0x84, 0x03, 0x00, 0x00, 0x7c, 0x03, 0x00, 0x00, 0x74, 0x03, 0x00, 0x00, 0x6c, 0x03, 0x00, 0x00, 0x64, 0x03, 0x00, 0x00, 0x5c, 0x03, 0x00, 0x00, 0x54, 0x03, 0x00, 0x00, 0x4c, 0x03, 0x00, 0x00, 0x44, 0x03, 0x00, 0x00, 0x3c, 0x03, 0x00, 0x00, 0x34, 0x03, 0x00, 0x00, 0x2c, 0x03, 0x00, 0x00, 0x24, 0x03, 0x00, 0x00, 0x1c, 0x03, 0x00, 0x00, 0x14, 0x03, 0x00, 0x00, 0x0c, 0x03, 0x00, 0x00, 0x04, 0x03, 0x00, 0x00, 0xfc, 0x02, 0x00, 0x00, 0xf4, 0x02, 0x00, 0x00, 0xec, 0x02, 0x00, 0x00, 0xe4, 0x02, 0x00, 0x00, 0xdc, 0x02, 0x00, 0x00, 0xd4, 0x02, 0x00, 0x00, 0xcc, 0x02, 0x00, 0x00, 0xc4, 0x02, 0x00, 0x00, 0xbc, 0x02, 0x00, 0x00, 0xb4, 0x02, 0x00, 0x00, 0xac, 0x02, 0x00, 0x00, 0xa4, 0x02, 0x00, 0x00, 0x9c, 0x02, 0x00, 0x00, 0x94, 0x02, 0x00, 0x00, 0x8c, 0x02, 0x00, 0x00, 0x84, 0x02, 0x00, 0x00, 0x7c, 0x02, 0x00, 0x00, 0x74, 0x02, 0x00, 0x00, 0x6c, 0x02, 0x00, 0x00, 0x64, 0x02, 0x00, 0x00, 0x5c, 0x02, 0x00, 0x00, 0x54, 0x02, 0x00, 0x00, 0x4c, 0x02, 0x00, 0x00, 0x44, 0x02, 0x00, 0x00, 0x3c, 0x02, 0x00, 0x00, 0x34, 0x02, 0x00, 0x00, 0x2c, 0x02, 0x00, 0x00, 0x24, 0x02, 0x00, 0x00, 0x1c, 0x02, 0x00, 0x00, 0x14, 0x02, 0x00, 0x00, 0x0c, 0x02, 0x00, 0x00, 0x04, 0x02, 0x00, 0x00, 0xfc, 0x01, 0x00, 0x00, 0xf4, 0x01, 0x00, 0x00, 0xec, 0x01, 0x00, 0x00, 0xe4, 0x01, 0x00, 0x00, 0xdc, 0x01, 0x00, 0x00, 0xd4, 0x01, 0x00, 0x00, 0xcc, 0x01, 0x00, 0x00, 0xc4, 0x01, 0x00, 0x00, 0xbc, 0x01, 0x00, 0x00, 0xb4, 0x01, 0x00, 0x00, 0xac, 0x01, 0x00, 0x00, 0xa4, 0x01, 0x00, 0x00, 0x9c, 0x01, 0x00, 0x00, 0x94, 0x01, 0x00, 0x00, 0x8c, 0x01, 0x00, 0x00, 0x84, 0x01, 0x00, 0x00, 0x7c, 0x01, 0x00, 0x00, 0x74, 0x01, 0x00, 0x00, 0x6c, 0x01, 0x00, 0x00, 0x64, 0x01, 0x00, 0x00, 0x5c, 0x01, 0x00, 0x00, 0x54, 0x01, 0x00, 0x00, 0x4c, 0x01, 0x00, 0x00, 0x44, 0x01, 0x00, 0x00, 0x3c, 0x01, 0x00, 0x00, 0x34, 0x01, 0x00, 0x00, 0x2c, 0x01, 0x00, 0x00, 0x24, 0x01, 0x00, 0x00, 0x1c, 0x01, 0x00, 0x00, 0x14, 0x01, 0x00, 0x00, 0x0c, 0x01, 0x00, 0x00, 0x04, 0x01, 0x00, 0x00, 0xfc, 0x00, 0x00, 0x00, 0xf4, 0x00, 0x00, 0x00, 0xec, 0x00, 0x00, 0x00, 0xe4, 0x00, 0x00, 0x00, 0xdc, 0x00, 0x00, 0x00, 0xd4, 0x00, 0x00, 0x00, 0xcc, 0x00, 0x00, 0x00, 0xc4, 0x00, 0x00, 0x00, 0xbc, 0x00, 0x00, 0x00, 0xb4, 0x00, 0x00, 0x00, 0xac, 0x00, 0x00, 0x00, 0xa4, 0x00, 0x00, 0x00, 0x9c, 0x00, 0x00, 0x00, 0x94, 0x00, 0x00, 0x00, 0x8c, 0x00, 0x00, 0x00, 0x6c, 0x00, 0x00, 0x00, 0x04, 0x00, 0x00, 0x00, 0x42, 0x90, 0xfe, 0xff, 0x04, 0x00, 0x00, 0x00, 0x58, 0x00, 0x00, 0x00, 0x0c, 0x00, 0x00, 0x00, 0x08, 0x00, 0x0e, 0x00, 0x08, 0x00, 0x04, 0x00, 0x08, 0x00, 0x00, 0x00, 0x10, 0x00, 0x00, 0x00, 0x28, 0x00, 0x00, 0x00, 0x00, 0x00, 0x06, 0x00, 0x08, 0x00, 0x04, 0x00, 0x06, 0x00, 0x00, 0x00, 0x04, 0x00, 0x00, 0x00, 0x01, 0x00, 0x00, 0x00, 0xea, 0x03, 0x00, 0x00, 0x00, 0x00, 0x0a, 0x00, 0x10, 0x00, 0x0c, 0x00, 0x08, 0x00, 0x04, 0x00, 0x0a, 0x00, 0x00, 0x00, 0x01, 0x00, 0x00, 0x00, 0x02, 0x00, 0x00, 0x00, 0x04, 0x00, 0x00, 0x00, 0x06, 0x00, 0x00, 0x00, 0x32, 0x2e, 0x31, 0x35, 0x2e, 0x31, 0x00, 0x00, 0xa6, 0x90, 0xfe, 0xff, 0x04, 0x00, 0x00, 0x00, 0x10, 0x00, 0x00, 0x00, 0x31, 0x2e, 0x31, 0x34, 0x2e, 0x30, 0x00, 0x00, 0x00, 0x00, 0x00, 0x00, 0x00, 0x00, 0x00, 0x00, 0x98, 0xa1, 0xfb, 0xff, 0x9c, 0xa1, 0xfb, 0xff, 0xa0, 0xa1, 0xfb, 0xff, 0xa4, 0xa1, 0xfb, 0xff, 0xa8, 0xa1, 0xfb, 0xff, 0xac, 0xa1, 0xfb, 0xff, 0xb0, 0xa1, 0xfb, 0xff, 0xb4, 0xa1, 0xfb, 0xff, 0xb8, 0xa1, 0xfb, 0xff, 0xbc, 0xa1, 0xfb, 0xff, 0xc0, 0xa1, 0xfb, 0xff, 0xc4, 0xa1, 0xfb, 0xff, 0xc8, 0xa1, 0xfb, 0xff, 0xcc, 0xa1, 0xfb, 0xff, 0xd0, 0xa1, 0xfb, 0xff, 0xd4, 0xa1, 0xfb, 0xff, 0xd8, 0xa1, 0xfb, 0xff, 0xdc, 0xa1, 0xfb, 0xff, 0xe0, 0xa1, 0xfb, 0xff, 0xe4, 0xa1, 0xfb, 0xff, 0xe8, 0xa1, 0xfb, 0xff, 0xec, 0xa1, 0xfb, 0xff, 0xf0, 0xa1, 0xfb, 0xff, 0xf4, 0xa1, 0xfb, 0xff, 0xf8, 0xa1, 0xfb, 0xff, 0xfc, 0xa1, 0xfb, 0xff, 0x00, 0xa2, 0xfb, 0xff, 0x04, 0xa2, 0xfb, 0xff, 0x08, 0xa2, 0xfb, 0xff, 0x0c, 0xa2, 0xfb, 0xff, 0x10, 0xa2, 0xfb, 0xff, 0x14, 0xa2, 0xfb, 0xff, 0x18, 0xa2, 0xfb, 0xff, 0x1c, 0xa2, 0xfb, 0xff, 0x20, 0xa2, 0xfb, 0xff, 0x24, 0xa2, 0xfb, 0xff, 0x28, 0xa2, 0xfb, 0xff, 0x2c, 0xa2, 0xfb, 0xff, 0x30, 0xa2, 0xfb, 0xff, 0x34, 0xa2, 0xfb, 0xff, 0x38, 0xa2, 0xfb, 0xff, 0x3c, 0xa2, 0xfb, 0xff, 0x40, 0xa2, 0xfb, 0xff, 0x44, 0xa2, 0xfb, 0xff, 0x48, 0xa2, 0xfb, 0xff, 0x4c, 0xa2, 0xfb, 0xff, 0x50, 0xa2, 0xfb, 0xff, 0x54, 0xa2, 0xfb, 0xff, 0x58, 0xa2, 0xfb, 0xff, 0x5c, 0xa2, 0xfb, 0xff, 0x60, 0xa2, 0xfb, 0xff, 0x64, 0xa2, 0xfb, 0xff, 0x68, 0xa2, 0xfb, 0xff, 0x6c, 0xa2, 0xfb, 0xff, 0x70, 0xa2, 0xfb, 0xff, 0x74, 0xa2, 0xfb, 0xff, 0x78, 0xa2, 0xfb, 0xff, 0x7c, 0xa2, 0xfb, 0xff, 0x80, 0xa2, 0xfb, 0xff, 0x84, 0xa2, 0xfb, 0xff, 0x88, 0xa2, 0xfb, 0xff, 0x8c, 0xa2, 0xfb, 0xff, 0x90, 0xa2, 0xfb, 0xff, 0x94, 0xa2, 0xfb, 0xff, 0x98, 0xa2, 0xfb, 0xff, 0x9c, 0xa2, 0xfb, 0xff, 0xa0, 0xa2, 0xfb, 0xff, 0xa4, 0xa2, 0xfb, 0xff, 0xa8, 0xa2, 0xfb, 0xff, 0xac, 0xa2, 0xfb, 0xff, 0xb0, 0xa2, 0xfb, 0xff, 0xb4, 0xa2, 0xfb, 0xff, 0xb8, 0xa2, 0xfb, 0xff, 0xbc, 0xa2, 0xfb, 0xff, 0xc0, 0xa2, 0xfb, 0xff, 0xc4, 0xa2, 0xfb, 0xff, 0xc8, 0xa2, 0xfb, 0xff, 0xcc, 0xa2, 0xfb, 0xff, 0xd0, 0xa2, 0xfb, 0xff, 0xd4, 0xa2, 0xfb, 0xff, 0xd8, 0xa2, 0xfb, 0xff, 0xdc, 0xa2, 0xfb, 0xff, 0xe0, 0xa2, 0xfb, 0xff, 0xe4, 0xa2, 0xfb, 0xff, 0xe8, 0xa2, 0xfb, 0xff, 0xec, 0xa2, 0xfb, 0xff, 0xf0, 0xa2, 0xfb, 0xff, 0xf4, 0xa2, 0xfb, 0xff, 0xf8, 0xa2, 0xfb, 0xff, 0xfc, 0xa2, 0xfb, 0xff, 0x00, 0xa3, 0xfb, 0xff, 0x04, 0xa3, 0xfb, 0xff, 0x08, 0xa3, 0xfb, 0xff, 0x0c, 0xa3, 0xfb, 0xff, 0x10, 0xa3, 0xfb, 0xff, 0x14, 0xa3, 0xfb, 0xff, 0x18, 0xa3, 0xfb, 0xff, 0x1c, 0xa3, 0xfb, 0xff, 0x20, 0xa3, 0xfb, 0xff, 0x24, 0xa3, 0xfb, 0xff, 0x28, 0xa3, 0xfb, 0xff, 0x2c, 0xa3, 0xfb, 0xff, 0x30, 0xa3, 0xfb, 0xff, 0x34, 0xa3, 0xfb, 0xff, 0x38, 0xa3, 0xfb, 0xff, 0x3c, 0xa3, 0xfb, 0xff, 0x40, 0xa3, 0xfb, 0xff, 0x44, 0xa3, 0xfb, 0xff, 0x48, 0xa3, 0xfb, 0xff, 0x4c, 0xa3, 0xfb, 0xff, 0x50, 0xa3, 0xfb, 0xff, 0x54, 0xa3, 0xfb, 0xff, 0x58, 0xa3, 0xfb, 0xff, 0x5c, 0xa3, 0xfb, 0xff, 0x60, 0xa3, 0xfb, 0xff, 0x64, 0xa3, 0xfb, 0xff, 0x68, 0xa3, 0xfb, 0xff, 0x6c, 0xa3, 0xfb, 0xff, 0x70, 0xa3, 0xfb, 0xff, 0x74, 0xa3, 0xfb, 0xff, 0x78, 0xa3, 0xfb, 0xff, 0x7c, 0xa3, 0xfb, 0xff, 0x80, 0xa3, 0xfb, 0xff, 0x84, 0xa3, 0xfb, 0xff, 0x88, 0xa3, 0xfb, 0xff, 0x8c, 0xa3, 0xfb, 0xff, 0x90, 0xa3, 0xfb, 0xff, 0x94, 0xa3, 0xfb, 0xff, 0x98, 0xa3, 0xfb, 0xff, 0x9c, 0xa3, 0xfb, 0xff, 0xa0, 0xa3, 0xfb, 0xff, 0xa4, 0xa3, 0xfb, 0xff, 0xa8, 0xa3, 0xfb, 0xff, 0xac, 0xa3, 0xfb, 0xff, 0xb0, 0xa3, 0xfb, 0xff, 0xb4, 0xa3, 0xfb, 0xff, 0xb8, 0xa3, 0xfb, 0xff, 0xbc, 0xa3, 0xfb, 0xff, 0xc0, 0xa3, 0xfb, 0xff, 0xc4, 0xa3, 0xfb, 0xff, 0xc8, 0xa3, 0xfb, 0xff, 0xcc, 0xa3, 0xfb, 0xff, 0xd0, 0xa3, 0xfb, 0xff, 0xd4, 0xa3, 0xfb, 0xff, 0xd8, 0xa3, 0xfb, 0xff, 0xdc, 0xa3, 0xfb, 0xff, 0xe0, 0xa3, 0xfb, 0xff, 0xe4, 0xa3, 0xfb, 0xff, 0xe8, 0xa3, 0xfb, 0xff, 0xec, 0xa3, 0xfb, 0xff, 0xf0, 0xa3, 0xfb, 0xff, 0xf4, 0xa3, 0xfb, 0xff, 0xf8, 0xa3, 0xfb, 0xff, 0xfc, 0xa3, 0xfb, 0xff, 0x00, 0xa4, 0xfb, 0xff, 0x04, 0xa4, 0xfb, 0xff, 0x08, 0xa4, 0xfb, 0xff, 0x0c, 0xa4, 0xfb, 0xff, 0x10, 0xa4, 0xfb, 0xff, 0x14, 0xa4, 0xfb, 0xff, 0x18, 0xa4, 0xfb, 0xff, 0x1c, 0xa4, 0xfb, 0xff, 0x20, 0xa4, 0xfb, 0xff, 0x24, 0xa4, 0xfb, 0xff, 0x28, 0xa4, 0xfb, 0xff, 0x2c, 0xa4, 0xfb, 0xff, 0x30, 0xa4, 0xfb, 0xff, 0x34, 0xa4, 0xfb, 0xff, 0x38, 0xa4, 0xfb, 0xff, 0x3c, 0xa4, 0xfb, 0xff, 0x40, 0xa4, 0xfb, 0xff, 0x44, 0xa4, 0xfb, 0xff, 0x48, 0xa4, 0xfb, 0xff, 0x4c, 0xa4, 0xfb, 0xff, 0x50, 0xa4, 0xfb, 0xff, 0x54, 0xa4, 0xfb, 0xff, 0x58, 0xa4, 0xfb, 0xff, 0x5c, 0xa4, 0xfb, 0xff, 0x60, 0xa4, 0xfb, 0xff, 0x64, 0xa4, 0xfb, 0xff, 0x68, 0xa4, 0xfb, 0xff, 0x6c, 0xa4, 0xfb, 0xff, 0x70, 0xa4, 0xfb, 0xff, 0x74, 0xa4, 0xfb, 0xff, 0x78, 0xa4, 0xfb, 0xff, 0x7c, 0xa4, 0xfb, 0xff, 0x80, 0xa4, 0xfb, 0xff, 0x84, 0xa4, 0xfb, 0xff, 0x88, 0xa4, 0xfb, 0xff, 0x8c, 0xa4, 0xfb, 0xff, 0x90, 0xa4, 0xfb, 0xff, 0x94, 0xa4, 0xfb, 0xff, 0x98, 0xa4, 0xfb, 0xff, 0x9c, 0xa4, 0xfb, 0xff, 0xa0, 0xa4, 0xfb, 0xff, 0xa4, 0xa4, 0xfb, 0xff, 0xa8, 0xa4, 0xfb, 0xff, 0xac, 0xa4, 0xfb, 0xff, 0xb0, 0xa4, 0xfb, 0xff, 0xb4, 0xa4, 0xfb, 0xff, 0xb8, 0xa4, 0xfb, 0xff, 0xbc, 0xa4, 0xfb, 0xff, 0xc0, 0xa4, 0xfb, 0xff, 0xc4, 0xa4, 0xfb, 0xff, 0xc8, 0xa4, 0xfb, 0xff, 0xcc, 0xa4, 0xfb, 0xff, 0xd0, 0xa4, 0xfb, 0xff, 0xd4, 0xa4, 0xfb, 0xff, 0xd8, 0xa4, 0xfb, 0xff, 0xdc, 0xa4, 0xfb, 0xff, 0xe0, 0xa4, 0xfb, 0xff, 0xe4, 0xa4, 0xfb, 0xff, 0xe8, 0xa4, 0xfb, 0xff, 0xec, 0xa4, 0xfb, 0xff, 0xf0, 0xa4, 0xfb, 0xff, 0xf4, 0xa4, 0xfb, 0xff, 0xf8, 0xa4, 0xfb, 0xff, 0xfc, 0xa4, 0xfb, 0xff, 0x00, 0xa5, 0xfb, 0xff, 0x04, 0xa5, 0xfb, 0xff, 0x08, 0xa5, 0xfb, 0xff, 0x0c, 0xa5, 0xfb, 0xff, 0x10, 0xa5, 0xfb, 0xff, 0x14, 0xa5, 0xfb, 0xff, 0x18, 0xa5, 0xfb, 0xff, 0x1c, 0xa5, 0xfb, 0xff, 0x20, 0xa5, 0xfb, 0xff, 0x24, 0xa5, 0xfb, 0xff, 0x28, 0xa5, 0xfb, 0xff, 0x2c, 0xa5, 0xfb, 0xff, 0x30, 0xa5, 0xfb, 0xff, 0x34, 0xa5, 0xfb, 0xff, 0x38, 0xa5, 0xfb, 0xff, 0x3c, 0xa5, 0xfb, 0xff, 0x40, 0xa5, 0xfb, 0xff, 0x44, 0xa5, 0xfb, 0xff, 0x48, 0xa5, 0xfb, 0xff, 0x4c, 0xa5, 0xfb, 0xff, 0x50, 0xa5, 0xfb, 0xff, 0x54, 0xa5, 0xfb, 0xff, 0x58, 0xa5, 0xfb, 0xff, 0x5c, 0xa5, 0xfb, 0xff, 0x60, 0xa5, 0xfb, 0xff, 0x64, 0xa5, 0xfb, 0xff, 0x68, 0xa5, 0xfb, 0xff, 0x6c, 0xa5, 0xfb, 0xff, 0x70, 0xa5, 0xfb, 0xff, 0x74, 0xa5, 0xfb, 0xff, 0x78, 0xa5, 0xfb, 0xff, 0x7c, 0xa5, 0xfb, 0xff, 0x80, 0xa5, 0xfb, 0xff, 0x84, 0xa5, 0xfb, 0xff, 0x88, 0xa5, 0xfb, 0xff, 0x8c, 0xa5, 0xfb, 0xff, 0x90, 0xa5, 0xfb, 0xff, 0x94, 0xa5, 0xfb, 0xff, 0x98, 0xa5, 0xfb, 0xff, 0x9c, 0xa5, 0xfb, 0xff, 0xa0, 0xa5, 0xfb, 0xff, 0xa4, 0xa5, 0xfb, 0xff, 0xa8, 0xa5, 0xfb, 0xff, 0xac, 0xa5, 0xfb, 0xff, 0xb0, 0xa5, 0xfb, 0xff, 0xb4, 0xa5, 0xfb, 0xff, 0xb8, 0xa5, 0xfb, 0xff, 0xbc, 0xa5, 0xfb, 0xff, 0xc0, 0xa5, 0xfb, 0xff, 0xc4, 0xa5, 0xfb, 0xff, 0xc8, 0xa5, 0xfb, 0xff, 0xcc, 0xa5, 0xfb, 0xff, 0xd0, 0xa5, 0xfb, 0xff, 0xd4, 0xa5, 0xfb, 0xff, 0xd8, 0xa5, 0xfb, 0xff, 0xdc, 0xa5, 0xfb, 0xff, 0xe0, 0xa5, 0xfb, 0xff, 0xe4, 0xa5, 0xfb, 0xff, 0xe8, 0xa5, 0xfb, 0xff, 0xec, 0xa5, 0xfb, 0xff, 0xf0, 0xa5, 0xfb, 0xff, 0xf4, 0xa5, 0xfb, 0xff, 0xf8, 0xa5, 0xfb, 0xff, 0xfc, 0xa5, 0xfb, 0xff, 0x00, 0xa6, 0xfb, 0xff, 0x04, 0xa6, 0xfb, 0xff, 0x08, 0xa6, 0xfb, 0xff, 0x0c, 0xa6, 0xfb, 0xff, 0x10, 0xa6, 0xfb, 0xff, 0x14, 0xa6, 0xfb, 0xff, 0x18, 0xa6, 0xfb, 0xff, 0x1c, 0xa6, 0xfb, 0xff, 0x20, 0xa6, 0xfb, 0xff, 0x24, 0xa6, 0xfb, 0xff, 0x28, 0xa6, 0xfb, 0xff, 0x2c, 0xa6, 0xfb, 0xff, 0x30, 0xa6, 0xfb, 0xff, 0x34, 0xa6, 0xfb, 0xff, 0x38, 0xa6, 0xfb, 0xff, 0x3c, 0xa6, 0xfb, 0xff, 0x40, 0xa6, 0xfb, 0xff, 0x44, 0xa6, 0xfb, 0xff, 0x48, 0xa6, 0xfb, 0xff, 0x4c, 0xa6, 0xfb, 0xff, 0x50, 0xa6, 0xfb, 0xff, 0x54, 0xa6, 0xfb, 0xff, 0x58, 0xa6, 0xfb, 0xff, 0x5c, 0xa6, 0xfb, 0xff, 0x60, 0xa6, 0xfb, 0xff, 0x64, 0xa6, 0xfb, 0xff, 0x68, 0xa6, 0xfb, 0xff, 0x6c, 0xa6, 0xfb, 0xff, 0x70, 0xa6, 0xfb, 0xff, 0x74, 0xa6, 0xfb, 0xff, 0x78, 0xa6, 0xfb, 0xff, 0x7c, 0xa6, 0xfb, 0xff, 0x80, 0xa6, 0xfb, 0xff, 0x84, 0xa6, 0xfb, 0xff, 0x88, 0xa6, 0xfb, 0xff, 0x8c, 0xa6, 0xfb, 0xff, 0x90, 0xa6, 0xfb, 0xff, 0x94, 0xa6, 0xfb, 0xff, 0x98, 0xa6, 0xfb, 0xff, 0x9c, 0xa6, 0xfb, 0xff, 0xa0, 0xa6, 0xfb, 0xff, 0xa4, 0xa6, 0xfb, 0xff, 0xa8, 0xa6, 0xfb, 0xff, 0xac, 0xa6, 0xfb, 0xff, 0xb0, 0xa6, 0xfb, 0xff, 0xb4, 0xa6, 0xfb, 0xff, 0xb8, 0xa6, 0xfb, 0xff, 0xbc, 0xa6, 0xfb, 0xff, 0xc0, 0xa6, 0xfb, 0xff, 0xc4, 0xa6, 0xfb, 0xff, 0xc8, 0xa6, 0xfb, 0xff, 0xcc, 0xa6, 0xfb, 0xff, 0xd0, 0xa6, 0xfb, 0xff, 0xd4, 0xa6, 0xfb, 0xff, 0xd8, 0xa6, 0xfb, 0xff, 0xdc, 0xa6, 0xfb, 0xff, 0xe0, 0xa6, 0xfb, 0xff, 0xe4, 0xa6, 0xfb, 0xff, 0xe8, 0xa6, 0xfb, 0xff, 0xec, 0xa6, 0xfb, 0xff, 0xf0, 0xa6, 0xfb, 0xff, 0xf4, 0xa6, 0xfb, 0xff, 0xf8, 0xa6, 0xfb, 0xff, 0xfc, 0xa6, 0xfb, 0xff, 0x00, 0xa7, 0xfb, 0xff, 0x04, 0xa7, 0xfb, 0xff, 0x08, 0xa7, 0xfb, 0xff, 0x0c, 0xa7, 0xfb, 0xff, 0x10, 0xa7, 0xfb, 0xff, 0x14, 0xa7, 0xfb, 0xff, 0x18, 0xa7, 0xfb, 0xff, 0x1c, 0xa7, 0xfb, 0xff, 0x20, 0xa7, 0xfb, 0xff, 0x24, 0xa7, 0xfb, 0xff, 0x28, 0xa7, 0xfb, 0xff, 0x2c, 0xa7, 0xfb, 0xff, 0x30, 0xa7, 0xfb, 0xff, 0x34, 0xa7, 0xfb, 0xff, 0x38, 0xa7, 0xfb, 0xff, 0x3c, 0xa7, 0xfb, 0xff, 0x40, 0xa7, 0xfb, 0xff, 0x44, 0xa7, 0xfb, 0xff, 0x48, 0xa7, 0xfb, 0xff, 0x4c, 0xa7, 0xfb, 0xff, 0x50, 0xa7, 0xfb, 0xff, 0x54, 0xa7, 0xfb, 0xff, 0x58, 0xa7, 0xfb, 0xff, 0x5c, 0xa7, 0xfb, 0xff, 0x60, 0xa7, 0xfb, 0xff, 0x64, 0xa7, 0xfb, 0xff, 0x68, 0xa7, 0xfb, 0xff, 0x6c, 0xa7, 0xfb, 0xff, 0x70, 0xa7, 0xfb, 0xff, 0x74, 0xa7, 0xfb, 0xff, 0x78, 0xa7, 0xfb, 0xff, 0x7c, 0xa7, 0xfb, 0xff, 0x80, 0xa7, 0xfb, 0xff, 0x84, 0xa7, 0xfb, 0xff, 0x88, 0xa7, 0xfb, 0xff, 0x8c, 0xa7, 0xfb, 0xff, 0x90, 0xa7, 0xfb, 0xff, 0x94, 0xa7, 0xfb, 0xff, 0x98, 0xa7, 0xfb, 0xff, 0x9c, 0xa7, 0xfb, 0xff, 0xa0, 0xa7, 0xfb, 0xff, 0xa4, 0xa7, 0xfb, 0xff, 0xa8, 0xa7, 0xfb, 0xff, 0xac, 0xa7, 0xfb, 0xff, 0xb0, 0xa7, 0xfb, 0xff, 0xb4, 0xa7, 0xfb, 0xff, 0xb8, 0xa7, 0xfb, 0xff, 0xbc, 0xa7, 0xfb, 0xff, 0xc0, 0xa7, 0xfb, 0xff, 0xc4, 0xa7, 0xfb, 0xff, 0xc8, 0xa7, 0xfb, 0xff, 0xcc, 0xa7, 0xfb, 0xff, 0xd0, 0xa7, 0xfb, 0xff, 0xd4, 0xa7, 0xfb, 0xff, 0xd8, 0xa7, 0xfb, 0xff, 0xdc, 0xa7, 0xfb, 0xff, 0xe0, 0xa7, 0xfb, 0xff, 0xe4, 0xa7, 0xfb, 0xff, 0xe8, 0xa7, 0xfb, 0xff, 0xec, 0xa7, 0xfb, 0xff, 0xf0, 0xa7, 0xfb, 0xff, 0xf4, 0xa7, 0xfb, 0xff, 0xf8, 0xa7, 0xfb, 0xff, 0xfc, 0xa7, 0xfb, 0xff, 0x00, 0xa8, 0xfb, 0xff, 0x04, 0xa8, 0xfb, 0xff, 0x08, 0xa8, 0xfb, 0xff, 0x0c, 0xa8, 0xfb, 0xff, 0x10, 0xa8, 0xfb, 0xff, 0x14, 0xa8, 0xfb, 0xff, 0x18, 0xa8, 0xfb, 0xff, 0x1c, 0xa8, 0xfb, 0xff, 0x20, 0xa8, 0xfb, 0xff, 0x24, 0xa8, 0xfb, 0xff, 0x28, 0xa8, 0xfb, 0xff, 0x2c, 0xa8, 0xfb, 0xff, 0x30, 0xa8, 0xfb, 0xff, 0x34, 0xa8, 0xfb, 0xff, 0x38, 0xa8, 0xfb, 0xff, 0x3c, 0xa8, 0xfb, 0xff, 0x40, 0xa8, 0xfb, 0xff, 0x44, 0xa8, 0xfb, 0xff, 0x48, 0xa8, 0xfb, 0xff, 0x4c, 0xa8, 0xfb, 0xff, 0x50, 0xa8, 0xfb, 0xff, 0x54, 0xa8, 0xfb, 0xff, 0x58, 0xa8, 0xfb, 0xff, 0x5c, 0xa8, 0xfb, 0xff, 0x60, 0xa8, 0xfb, 0xff, 0x64, 0xa8, 0xfb, 0xff, 0x68, 0xa8, 0xfb, 0xff, 0x6c, 0xa8, 0xfb, 0xff, 0x70, 0xa8, 0xfb, 0xff, 0x74, 0xa8, 0xfb, 0xff, 0x78, 0xa8, 0xfb, 0xff, 0x7c, 0xa8, 0xfb, 0xff, 0x80, 0xa8, 0xfb, 0xff, 0x84, 0xa8, 0xfb, 0xff, 0x88, 0xa8, 0xfb, 0xff, 0x8c, 0xa8, 0xfb, 0xff, 0x90, 0xa8, 0xfb, 0xff, 0x94, 0xa8, 0xfb, 0xff, 0x98, 0xa8, 0xfb, 0xff, 0x9c, 0xa8, 0xfb, 0xff, 0xa0, 0xa8, 0xfb, 0xff, 0xa4, 0xa8, 0xfb, 0xff, 0xa8, 0xa8, 0xfb, 0xff, 0xac, 0xa8, 0xfb, 0xff, 0xb0, 0xa8, 0xfb, 0xff, 0xb4, 0xa8, 0xfb, 0xff, 0xb8, 0xa8, 0xfb, 0xff, 0xbc, 0xa8, 0xfb, 0xff, 0xc0, 0xa8, 0xfb, 0xff, 0xc4, 0xa8, 0xfb, 0xff, 0xc8, 0xa8, 0xfb, 0xff, 0xcc, 0xa8, 0xfb, 0xff, 0xd0, 0xa8, 0xfb, 0xff, 0xd4, 0xa8, 0xfb, 0xff, 0xd8, 0xa8, 0xfb, 0xff, 0xdc, 0xa8, 0xfb, 0xff, 0xe0, 0xa8, 0xfb, 0xff, 0xe4, 0xa8, 0xfb, 0xff, 0xe8, 0xa8, 0xfb, 0xff, 0xec, 0xa8, 0xfb, 0xff, 0xf0, 0xa8, 0xfb, 0xff, 0xf4, 0xa8, 0xfb, 0xff, 0xf8, 0xa8, 0xfb, 0xff, 0xfc, 0xa8, 0xfb, 0xff, 0x00, 0xa9, 0xfb, 0xff, 0x04, 0xa9, 0xfb, 0xff, 0x08, 0xa9, 0xfb, 0xff, 0x0c, 0xa9, 0xfb, 0xff, 0x10, 0xa9, 0xfb, 0xff, 0x14, 0xa9, 0xfb, 0xff, 0x18, 0xa9, 0xfb, 0xff, 0x1c, 0xa9, 0xfb, 0xff, 0x20, 0xa9, 0xfb, 0xff, 0x24, 0xa9, 0xfb, 0xff, 0x28, 0xa9, 0xfb, 0xff, 0x2c, 0xa9, 0xfb, 0xff, 0x30, 0xa9, 0xfb, 0xff, 0x34, 0xa9, 0xfb, 0xff, 0x38, 0xa9, 0xfb, 0xff, 0x3c, 0xa9, 0xfb, 0xff, 0x40, 0xa9, 0xfb, 0xff, 0x44, 0xa9, 0xfb, 0xff, 0x48, 0xa9, 0xfb, 0xff, 0x4c, 0xa9, 0xfb, 0xff, 0x50, 0xa9, 0xfb, 0xff, 0x54, 0xa9, 0xfb, 0xff, 0x58, 0xa9, 0xfb, 0xff, 0x5c, 0xa9, 0xfb, 0xff, 0x60, 0xa9, 0xfb, 0xff, 0x64, 0xa9, 0xfb, 0xff, 0x68, 0xa9, 0xfb, 0xff, 0x6c, 0xa9, 0xfb, 0xff, 0x70, 0xa9, 0xfb, 0xff, 0x74, 0xa9, 0xfb, 0xff, 0x78, 0xa9, 0xfb, 0xff, 0x7c, 0xa9, 0xfb, 0xff, 0x80, 0xa9, 0xfb, 0xff, 0x84, 0xa9, 0xfb, 0xff, 0x88, 0xa9, 0xfb, 0xff, 0x8c, 0xa9, 0xfb, 0xff, 0x90, 0xa9, 0xfb, 0xff, 0x94, 0xa9, 0xfb, 0xff, 0x98, 0xa9, 0xfb, 0xff, 0x9c, 0xa9, 0xfb, 0xff, 0xa0, 0xa9, 0xfb, 0xff, 0xa4, 0xa9, 0xfb, 0xff, 0xa8, 0xa9, 0xfb, 0xff, 0xac, 0xa9, 0xfb, 0xff, 0xb0, 0xa9, 0xfb, 0xff, 0xb4, 0xa9, 0xfb, 0xff, 0xb8, 0xa9, 0xfb, 0xff, 0xbc, 0xa9, 0xfb, 0xff, 0xc0, 0xa9, 0xfb, 0xff, 0xc4, 0xa9, 0xfb, 0xff, 0xc8, 0xa9, 0xfb, 0xff, 0xcc, 0xa9, 0xfb, 0xff, 0xd0, 0xa9, 0xfb, 0xff, 0xd4, 0xa9, 0xfb, 0xff, 0xd8, 0xa9, 0xfb, 0xff, 0xdc, 0xa9, 0xfb, 0xff, 0xe0, 0xa9, 0xfb, 0xff, 0xe4, 0xa9, 0xfb, 0xff, 0xe8, 0xa9, 0xfb, 0xff, 0xec, 0xa9, 0xfb, 0xff, 0xf0, 0xa9, 0xfb, 0xff, 0xf4, 0xa9, 0xfb, 0xff, 0xf8, 0xa9, 0xfb, 0xff, 0xfc, 0xa9, 0xfb, 0xff, 0x00, 0xaa, 0xfb, 0xff, 0x04, 0xaa, 0xfb, 0xff, 0x08, 0xaa, 0xfb, 0xff, 0x0c, 0xaa, 0xfb, 0xff, 0x10, 0xaa, 0xfb, 0xff, 0x14, 0xaa, 0xfb, 0xff, 0x18, 0xaa, 0xfb, 0xff, 0x1c, 0xaa, 0xfb, 0xff, 0x20, 0xaa, 0xfb, 0xff, 0x24, 0xaa, 0xfb, 0xff, 0x28, 0xaa, 0xfb, 0xff, 0x2c, 0xaa, 0xfb, 0xff, 0x30, 0xaa, 0xfb, 0xff, 0x34, 0xaa, 0xfb, 0xff, 0x38, 0xaa, 0xfb, 0xff, 0x3c, 0xaa, 0xfb, 0xff, 0x40, 0xaa, 0xfb, 0xff, 0x44, 0xaa, 0xfb, 0xff, 0x48, 0xaa, 0xfb, 0xff, 0x4c, 0xaa, 0xfb, 0xff, 0x50, 0xaa, 0xfb, 0xff, 0x54, 0xaa, 0xfb, 0xff, 0x58, 0xaa, 0xfb, 0xff, 0x5c, 0xaa, 0xfb, 0xff, 0x60, 0xaa, 0xfb, 0xff, 0x64, 0xaa, 0xfb, 0xff, 0x68, 0xaa, 0xfb, 0xff, 0x6c, 0xaa, 0xfb, 0xff, 0x70, 0xaa, 0xfb, 0xff, 0x74, 0xaa, 0xfb, 0xff, 0x78, 0xaa, 0xfb, 0xff, 0x7c, 0xaa, 0xfb, 0xff, 0x80, 0xaa, 0xfb, 0xff, 0x84, 0xaa, 0xfb, 0xff, 0x88, 0xaa, 0xfb, 0xff, 0x8c, 0xaa, 0xfb, 0xff, 0x90, 0xaa, 0xfb, 0xff, 0x94, 0xaa, 0xfb, 0xff, 0x98, 0xaa, 0xfb, 0xff, 0x9c, 0xaa, 0xfb, 0xff, 0xa0, 0xaa, 0xfb, 0xff, 0xa4, 0xaa, 0xfb, 0xff, 0xa8, 0xaa, 0xfb, 0xff, 0xac, 0xaa, 0xfb, 0xff, 0xb0, 0xaa, 0xfb, 0xff, 0xb4, 0xaa, 0xfb, 0xff, 0xb8, 0xaa, 0xfb, 0xff, 0xbc, 0xaa, 0xfb, 0xff, 0xc0, 0xaa, 0xfb, 0xff, 0xc4, 0xaa, 0xfb, 0xff, 0xc8, 0xaa, 0xfb, 0xff, 0xcc, 0xaa, 0xfb, 0xff, 0xd0, 0xaa, 0xfb, 0xff, 0xd4, 0xaa, 0xfb, 0xff, 0xd8, 0xaa, 0xfb, 0xff, 0xdc, 0xaa, 0xfb, 0xff, 0xe0, 0xaa, 0xfb, 0xff, 0xe4, 0xaa, 0xfb, 0xff, 0xe8, 0xaa, 0xfb, 0xff, 0xec, 0xaa, 0xfb, 0xff, 0xf0, 0xaa, 0xfb, 0xff, 0xf4, 0xaa, 0xfb, 0xff, 0xf8, 0xaa, 0xfb, 0xff, 0xfc, 0xaa, 0xfb, 0xff, 0x00, 0xab, 0xfb, 0xff, 0x04, 0xab, 0xfb, 0xff, 0x08, 0xab, 0xfb, 0xff, 0x0c, 0xab, 0xfb, 0xff, 0x10, 0xab, 0xfb, 0xff, 0x14, 0xab, 0xfb, 0xff, 0x18, 0xab, 0xfb, 0xff, 0x1c, 0xab, 0xfb, 0xff, 0x20, 0xab, 0xfb, 0xff, 0x24, 0xab, 0xfb, 0xff, 0x28, 0xab, 0xfb, 0xff, 0x2c, 0xab, 0xfb, 0xff, 0x30, 0xab, 0xfb, 0xff, 0x34, 0xab, 0xfb, 0xff, 0x38, 0xab, 0xfb, 0xff, 0x3c, 0xab, 0xfb, 0xff, 0x40, 0xab, 0xfb, 0xff, 0x44, 0xab, 0xfb, 0xff, 0x48, 0xab, 0xfb, 0xff, 0x4c, 0xab, 0xfb, 0xff, 0x50, 0xab, 0xfb, 0xff, 0x54, 0xab, 0xfb, 0xff, 0x58, 0xab, 0xfb, 0xff, 0x5c, 0xab, 0xfb, 0xff, 0x60, 0xab, 0xfb, 0xff, 0x64, 0xab, 0xfb, 0xff, 0x68, 0xab, 0xfb, 0xff, 0x6c, 0xab, 0xfb, 0xff, 0x70, 0xab, 0xfb, 0xff, 0x74, 0xab, 0xfb, 0xff, 0x78, 0xab, 0xfb, 0xff, 0x7c, 0xab, 0xfb, 0xff, 0x80, 0xab, 0xfb, 0xff, 0x84, 0xab, 0xfb, 0xff, 0x88, 0xab, 0xfb, 0xff, 0x8c, 0xab, 0xfb, 0xff, 0x90, 0xab, 0xfb, 0xff, 0x94, 0xab, 0xfb, 0xff, 0x98, 0xab, 0xfb, 0xff, 0x9c, 0xab, 0xfb, 0xff, 0xa0, 0xab, 0xfb, 0xff, 0xa4, 0xab, 0xfb, 0xff, 0xa8, 0xab, 0xfb, 0xff, 0xac, 0xab, 0xfb, 0xff, 0xb0, 0xab, 0xfb, 0xff, 0xb4, 0xab, 0xfb, 0xff, 0xb8, 0xab, 0xfb, 0xff, 0xbc, 0xab, 0xfb, 0xff, 0xc0, 0xab, 0xfb, 0xff, 0xc4, 0xab, 0xfb, 0xff, 0xc8, 0xab, 0xfb, 0xff, 0xcc, 0xab, 0xfb, 0xff, 0xd0, 0xab, 0xfb, 0xff, 0xd4, 0xab, 0xfb, 0xff, 0xd8, 0xab, 0xfb, 0xff, 0xdc, 0xab, 0xfb, 0xff, 0xe0, 0xab, 0xfb, 0xff, 0xe4, 0xab, 0xfb, 0xff, 0xe8, 0xab, 0xfb, 0xff, 0xec, 0xab, 0xfb, 0xff, 0xf0, 0xab, 0xfb, 0xff, 0xf4, 0xab, 0xfb, 0xff, 0xf8, 0xab, 0xfb, 0xff, 0xfc, 0xab, 0xfb, 0xff, 0x00, 0xac, 0xfb, 0xff, 0x04, 0xac, 0xfb, 0xff, 0x08, 0xac, 0xfb, 0xff, 0x0c, 0xac, 0xfb, 0xff, 0x10, 0xac, 0xfb, 0xff, 0x14, 0xac, 0xfb, 0xff, 0x18, 0xac, 0xfb, 0xff, 0x1c, 0xac, 0xfb, 0xff, 0x20, 0xac, 0xfb, 0xff, 0x24, 0xac, 0xfb, 0xff, 0x28, 0xac, 0xfb, 0xff, 0x2c, 0xac, 0xfb, 0xff, 0x30, 0xac, 0xfb, 0xff, 0x34, 0xac, 0xfb, 0xff, 0x38, 0xac, 0xfb, 0xff, 0x3c, 0xac, 0xfb, 0xff, 0x40, 0xac, 0xfb, 0xff, 0x44, 0xac, 0xfb, 0xff, 0x48, 0xac, 0xfb, 0xff, 0x4c, 0xac, 0xfb, 0xff, 0x50, 0xac, 0xfb, 0xff, 0x54, 0xac, 0xfb, 0xff, 0x58, 0xac, 0xfb, 0xff, 0x5c, 0xac, 0xfb, 0xff, 0x60, 0xac, 0xfb, 0xff, 0x64, 0xac, 0xfb, 0xff, 0x68, 0xac, 0xfb, 0xff, 0x6c, 0xac, 0xfb, 0xff, 0x70, 0xac, 0xfb, 0xff, 0x74, 0xac, 0xfb, 0xff, 0x78, 0xac, 0xfb, 0xff, 0x7c, 0xac, 0xfb, 0xff, 0x80, 0xac, 0xfb, 0xff, 0x84, 0xac, 0xfb, 0xff, 0x88, 0xac, 0xfb, 0xff, 0x8c, 0xac, 0xfb, 0xff, 0x90, 0xac, 0xfb, 0xff, 0x94, 0xac, 0xfb, 0xff, 0x98, 0xac, 0xfb, 0xff, 0x9c, 0xac, 0xfb, 0xff, 0xa0, 0xac, 0xfb, 0xff, 0xa4, 0xac, 0xfb, 0xff, 0xa8, 0xac, 0xfb, 0xff, 0xac, 0xac, 0xfb, 0xff, 0xb0, 0xac, 0xfb, 0xff, 0xb4, 0xac, 0xfb, 0xff, 0xb8, 0xac, 0xfb, 0xff, 0xbc, 0xac, 0xfb, 0xff, 0xc0, 0xac, 0xfb, 0xff, 0xc4, 0xac, 0xfb, 0xff, 0xc8, 0xac, 0xfb, 0xff, 0xcc, 0xac, 0xfb, 0xff, 0xd0, 0xac, 0xfb, 0xff, 0xd4, 0xac, 0xfb, 0xff, 0xd8, 0xac, 0xfb, 0xff, 0xdc, 0xac, 0xfb, 0xff, 0xe0, 0xac, 0xfb, 0xff, 0xe4, 0xac, 0xfb, 0xff, 0xe8, 0xac, 0xfb, 0xff, 0xec, 0xac, 0xfb, 0xff, 0xf0, 0xac, 0xfb, 0xff, 0xf4, 0xac, 0xfb, 0xff, 0xf8, 0xac, 0xfb, 0xff, 0xfc, 0xac, 0xfb, 0xff, 0x00, 0xad, 0xfb, 0xff, 0x04, 0xad, 0xfb, 0xff, 0x08, 0xad, 0xfb, 0xff, 0x0c, 0xad, 0xfb, 0xff, 0x10, 0xad, 0xfb, 0xff, 0x14, 0xad, 0xfb, 0xff, 0x18, 0xad, 0xfb, 0xff, 0x1c, 0xad, 0xfb, 0xff, 0x20, 0xad, 0xfb, 0xff, 0x24, 0xad, 0xfb, 0xff, 0x28, 0xad, 0xfb, 0xff, 0x2c, 0xad, 0xfb, 0xff, 0x30, 0xad, 0xfb, 0xff, 0x34, 0xad, 0xfb, 0xff, 0x38, 0xad, 0xfb, 0xff, 0x3c, 0xad, 0xfb, 0xff, 0x40, 0xad, 0xfb, 0xff, 0x44, 0xad, 0xfb, 0xff, 0x48, 0xad, 0xfb, 0xff, 0x4c, 0xad, 0xfb, 0xff, 0x50, 0xad, 0xfb, 0xff, 0x54, 0xad, 0xfb, 0xff, 0x58, 0xad, 0xfb, 0xff, 0x5c, 0xad, 0xfb, 0xff, 0x60, 0xad, 0xfb, 0xff, 0x64, 0xad, 0xfb, 0xff, 0x68, 0xad, 0xfb, 0xff, 0x6c, 0xad, 0xfb, 0xff, 0x70, 0xad, 0xfb, 0xff, 0x74, 0xad, 0xfb, 0xff, 0x78, 0xad, 0xfb, 0xff, 0x7c, 0xad, 0xfb, 0xff, 0x80, 0xad, 0xfb, 0xff, 0x84, 0xad, 0xfb, 0xff, 0x88, 0xad, 0xfb, 0xff, 0x8c, 0xad, 0xfb, 0xff, 0x90, 0xad, 0xfb, 0xff, 0x94, 0xad, 0xfb, 0xff, 0x98, 0xad, 0xfb, 0xff, 0x9c, 0xad, 0xfb, 0xff, 0xa0, 0xad, 0xfb, 0xff, 0xa4, 0xad, 0xfb, 0xff, 0xa8, 0xad, 0xfb, 0xff, 0xac, 0xad, 0xfb, 0xff, 0xb0, 0xad, 0xfb, 0xff, 0xb4, 0xad, 0xfb, 0xff, 0xb8, 0xad, 0xfb, 0xff, 0xbc, 0xad, 0xfb, 0xff, 0xc0, 0xad, 0xfb, 0xff, 0xc4, 0xad, 0xfb, 0xff, 0xc8, 0xad, 0xfb, 0xff, 0xcc, 0xad, 0xfb, 0xff, 0xd0, 0xad, 0xfb, 0xff, 0xd4, 0xad, 0xfb, 0xff, 0xd8, 0xad, 0xfb, 0xff, 0xdc, 0xad, 0xfb, 0xff, 0xe0, 0xad, 0xfb, 0xff, 0xe4, 0xad, 0xfb, 0xff, 0xe8, 0xad, 0xfb, 0xff, 0xec, 0xad, 0xfb, 0xff, 0xf0, 0xad, 0xfb, 0xff, 0xf4, 0xad, 0xfb, 0xff, 0xf8, 0xad, 0xfb, 0xff, 0xfc, 0xad, 0xfb, 0xff, 0x00, 0xae, 0xfb, 0xff, 0x04, 0xae, 0xfb, 0xff, 0x08, 0xae, 0xfb, 0xff, 0x0c, 0xae, 0xfb, 0xff, 0x10, 0xae, 0xfb, 0xff, 0x14, 0xae, 0xfb, 0xff, 0x18, 0xae, 0xfb, 0xff, 0x1c, 0xae, 0xfb, 0xff, 0x20, 0xae, 0xfb, 0xff, 0x24, 0xae, 0xfb, 0xff, 0x28, 0xae, 0xfb, 0xff, 0x2c, 0xae, 0xfb, 0xff, 0x30, 0xae, 0xfb, 0xff, 0x34, 0xae, 0xfb, 0xff, 0x38, 0xae, 0xfb, 0xff, 0x3c, 0xae, 0xfb, 0xff, 0x40, 0xae, 0xfb, 0xff, 0x44, 0xae, 0xfb, 0xff, 0x48, 0xae, 0xfb, 0xff, 0x4c, 0xae, 0xfb, 0xff, 0x50, 0xae, 0xfb, 0xff, 0x54, 0xae, 0xfb, 0xff, 0x58, 0xae, 0xfb, 0xff, 0x5c, 0xae, 0xfb, 0xff, 0x60, 0xae, 0xfb, 0xff, 0x64, 0xae, 0xfb, 0xff, 0x68, 0xae, 0xfb, 0xff, 0x6c, 0xae, 0xfb, 0xff, 0x70, 0xae, 0xfb, 0xff, 0x74, 0xae, 0xfb, 0xff, 0x78, 0xae, 0xfb, 0xff, 0x7c, 0xae, 0xfb, 0xff, 0x80, 0xae, 0xfb, 0xff, 0x84, 0xae, 0xfb, 0xff, 0x88, 0xae, 0xfb, 0xff, 0x8c, 0xae, 0xfb, 0xff, 0x90, 0xae, 0xfb, 0xff, 0x94, 0xae, 0xfb, 0xff, 0x98, 0xae, 0xfb, 0xff, 0x9c, 0xae, 0xfb, 0xff, 0xa0, 0xae, 0xfb, 0xff, 0xa4, 0xae, 0xfb, 0xff, 0xa8, 0xae, 0xfb, 0xff, 0xac, 0xae, 0xfb, 0xff, 0xb0, 0xae, 0xfb, 0xff, 0xb4, 0xae, 0xfb, 0xff, 0xb8, 0xae, 0xfb, 0xff, 0xbc, 0xae, 0xfb, 0xff, 0xc0, 0xae, 0xfb, 0xff, 0xc4, 0xae, 0xfb, 0xff, 0xc8, 0xae, 0xfb, 0xff, 0xcc, 0xae, 0xfb, 0xff, 0xd0, 0xae, 0xfb, 0xff, 0xd4, 0xae, 0xfb, 0xff, 0xd8, 0xae, 0xfb, 0xff, 0xdc, 0xae, 0xfb, 0xff, 0xe0, 0xae, 0xfb, 0xff, 0xe4, 0xae, 0xfb, 0xff, 0xe8, 0xae, 0xfb, 0xff, 0xec, 0xae, 0xfb, 0xff, 0xf0, 0xae, 0xfb, 0xff, 0xf4, 0xae, 0xfb, 0xff, 0xf8, 0xae, 0xfb, 0xff, 0xfc, 0xae, 0xfb, 0xff, 0x00, 0xaf, 0xfb, 0xff, 0x04, 0xaf, 0xfb, 0xff, 0x08, 0xaf, 0xfb, 0xff, 0x0c, 0xaf, 0xfb, 0xff, 0x10, 0xaf, 0xfb, 0xff, 0x14, 0xaf, 0xfb, 0xff, 0x18, 0xaf, 0xfb, 0xff, 0x1c, 0xaf, 0xfb, 0xff, 0x20, 0xaf, 0xfb, 0xff, 0x24, 0xaf, 0xfb, 0xff, 0x28, 0xaf, 0xfb, 0xff, 0x2c, 0xaf, 0xfb, 0xff, 0x30, 0xaf, 0xfb, 0xff, 0x34, 0xaf, 0xfb, 0xff, 0x38, 0xaf, 0xfb, 0xff, 0x3c, 0xaf, 0xfb, 0xff, 0x40, 0xaf, 0xfb, 0xff, 0x44, 0xaf, 0xfb, 0xff, 0x48, 0xaf, 0xfb, 0xff, 0x4c, 0xaf, 0xfb, 0xff, 0x50, 0xaf, 0xfb, 0xff, 0x54, 0xaf, 0xfb, 0xff, 0x58, 0xaf, 0xfb, 0xff, 0x5c, 0xaf, 0xfb, 0xff, 0x60, 0xaf, 0xfb, 0xff, 0x64, 0xaf, 0xfb, 0xff, 0x68, 0xaf, 0xfb, 0xff, 0x6c, 0xaf, 0xfb, 0xff, 0x70, 0xaf, 0xfb, 0xff, 0x74, 0xaf, 0xfb, 0xff, 0x78, 0xaf, 0xfb, 0xff, 0x7c, 0xaf, 0xfb, 0xff, 0x80, 0xaf, 0xfb, 0xff, 0x84, 0xaf, 0xfb, 0xff, 0x88, 0xaf, 0xfb, 0xff, 0x8c, 0xaf, 0xfb, 0xff, 0x90, 0xaf, 0xfb, 0xff, 0x94, 0xaf, 0xfb, 0xff, 0x98, 0xaf, 0xfb, 0xff, 0x9c, 0xaf, 0xfb, 0xff, 0xa0, 0xaf, 0xfb, 0xff, 0xa4, 0xaf, 0xfb, 0xff, 0xa8, 0xaf, 0xfb, 0xff, 0xac, 0xaf, 0xfb, 0xff, 0xb0, 0xaf, 0xfb, 0xff, 0xb4, 0xaf, 0xfb, 0xff, 0xb8, 0xaf, 0xfb, 0xff, 0xbc, 0xaf, 0xfb, 0xff, 0xc0, 0xaf, 0xfb, 0xff, 0xc4, 0xaf, 0xfb, 0xff, 0xc8, 0xaf, 0xfb, 0xff, 0xcc, 0xaf, 0xfb, 0xff, 0xd0, 0xaf, 0xfb, 0xff, 0xd4, 0xaf, 0xfb, 0xff, 0xd8, 0xaf, 0xfb, 0xff, 0xdc, 0xaf, 0xfb, 0xff, 0xe0, 0xaf, 0xfb, 0xff, 0xe4, 0xaf, 0xfb, 0xff, 0xe8, 0xaf, 0xfb, 0xff, 0xec, 0xaf, 0xfb, 0xff, 0xf0, 0xaf, 0xfb, 0xff, 0xf4, 0xaf, 0xfb, 0xff, 0xf8, 0xaf, 0xfb, 0xff, 0xfc, 0xaf, 0xfb, 0xff, 0x00, 0xb0, 0xfb, 0xff, 0x04, 0xb0, 0xfb, 0xff, 0x08, 0xb0, 0xfb, 0xff, 0x0c, 0xb0, 0xfb, 0xff, 0x10, 0xb0, 0xfb, 0xff, 0x14, 0xb0, 0xfb, 0xff, 0x18, 0xb0, 0xfb, 0xff, 0x1c, 0xb0, 0xfb, 0xff, 0x20, 0xb0, 0xfb, 0xff, 0x24, 0xb0, 0xfb, 0xff, 0x28, 0xb0, 0xfb, 0xff, 0x2c, 0xb0, 0xfb, 0xff, 0x30, 0xb0, 0xfb, 0xff, 0x34, 0xb0, 0xfb, 0xff, 0x38, 0xb0, 0xfb, 0xff, 0x3c, 0xb0, 0xfb, 0xff, 0x40, 0xb0, 0xfb, 0xff, 0x44, 0xb0, 0xfb, 0xff, 0x48, 0xb0, 0xfb, 0xff, 0x4c, 0xb0, 0xfb, 0xff, 0x50, 0xb0, 0xfb, 0xff, 0x54, 0xb0, 0xfb, 0xff, 0x58, 0xb0, 0xfb, 0xff, 0x5c, 0xb0, 0xfb, 0xff, 0x60, 0xb0, 0xfb, 0xff, 0x64, 0xb0, 0xfb, 0xff, 0x68, 0xb0, 0xfb, 0xff, 0x6c, 0xb0, 0xfb, 0xff, 0x70, 0xb0, 0xfb, 0xff, 0x74, 0xb0, 0xfb, 0xff, 0x78, 0xb0, 0xfb, 0xff, 0x7c, 0xb0, 0xfb, 0xff, 0x80, 0xb0, 0xfb, 0xff, 0x84, 0xb0, 0xfb, 0xff, 0x88, 0xb0, 0xfb, 0xff, 0x8c, 0xb0, 0xfb, 0xff, 0x90, 0xb0, 0xfb, 0xff, 0x94, 0xb0, 0xfb, 0xff, 0x98, 0xb0, 0xfb, 0xff, 0x9c, 0xb0, 0xfb, 0xff, 0xa0, 0xb0, 0xfb, 0xff, 0xa4, 0xb0, 0xfb, 0xff, 0xa8, 0xb0, 0xfb, 0xff, 0xac, 0xb0, 0xfb, 0xff, 0xb0, 0xb0, 0xfb, 0xff, 0xb4, 0xb0, 0xfb, 0xff, 0xb8, 0xb0, 0xfb, 0xff, 0xbc, 0xb0, 0xfb, 0xff, 0xc0, 0xb0, 0xfb, 0xff, 0xc4, 0xb0, 0xfb, 0xff, 0xc8, 0xb0, 0xfb, 0xff, 0xcc, 0xb0, 0xfb, 0xff, 0xd0, 0xb0, 0xfb, 0xff, 0xd4, 0xb0, 0xfb, 0xff, 0xd8, 0xb0, 0xfb, 0xff, 0xdc, 0xb0, 0xfb, 0xff, 0xe0, 0xb0, 0xfb, 0xff, 0xe4, 0xb0, 0xfb, 0xff, 0xe8, 0xb0, 0xfb, 0xff, 0xec, 0xb0, 0xfb, 0xff, 0xf0, 0xb0, 0xfb, 0xff, 0xf4, 0xb0, 0xfb, 0xff, 0xf8, 0xb0, 0xfb, 0xff, 0xfc, 0xb0, 0xfb, 0xff, 0x00, 0xb1, 0xfb, 0xff, 0x04, 0xb1, 0xfb, 0xff, 0x08, 0xb1, 0xfb, 0xff, 0x0c, 0xb1, 0xfb, 0xff, 0x10, 0xb1, 0xfb, 0xff, 0x14, 0xb1, 0xfb, 0xff, 0x18, 0xb1, 0xfb, 0xff, 0x1c, 0xb1, 0xfb, 0xff, 0x20, 0xb1, 0xfb, 0xff, 0x24, 0xb1, 0xfb, 0xff, 0x28, 0xb1, 0xfb, 0xff, 0x2c, 0xb1, 0xfb, 0xff, 0x30, 0xb1, 0xfb, 0xff, 0x34, 0xb1, 0xfb, 0xff, 0x38, 0xb1, 0xfb, 0xff, 0x3c, 0xb1, 0xfb, 0xff, 0x40, 0xb1, 0xfb, 0xff, 0x44, 0xb1, 0xfb, 0xff, 0x48, 0xb1, 0xfb, 0xff, 0x4c, 0xb1, 0xfb, 0xff, 0x50, 0xb1, 0xfb, 0xff, 0x54, 0xb1, 0xfb, 0xff, 0x58, 0xb1, 0xfb, 0xff, 0x5c, 0xb1, 0xfb, 0xff, 0x60, 0xb1, 0xfb, 0xff, 0x64, 0xb1, 0xfb, 0xff, 0x68, 0xb1, 0xfb, 0xff, 0x6c, 0xb1, 0xfb, 0xff, 0x70, 0xb1, 0xfb, 0xff, 0x74, 0xb1, 0xfb, 0xff, 0x78, 0xb1, 0xfb, 0xff, 0x7c, 0xb1, 0xfb, 0xff, 0x80, 0xb1, 0xfb, 0xff, 0x84, 0xb1, 0xfb, 0xff, 0x88, 0xb1, 0xfb, 0xff, 0x8c, 0xb1, 0xfb, 0xff, 0x90, 0xb1, 0xfb, 0xff, 0x94, 0xb1, 0xfb, 0xff, 0x98, 0xb1, 0xfb, 0xff, 0x9c, 0xb1, 0xfb, 0xff, 0xa0, 0xb1, 0xfb, 0xff, 0xa4, 0xb1, 0xfb, 0xff, 0xa8, 0xb1, 0xfb, 0xff, 0xac, 0xb1, 0xfb, 0xff, 0xb0, 0xb1, 0xfb, 0xff, 0xb4, 0xb1, 0xfb, 0xff, 0xb8, 0xb1, 0xfb, 0xff, 0xbc, 0xb1, 0xfb, 0xff, 0xc0, 0xb1, 0xfb, 0xff, 0xc4, 0xb1, 0xfb, 0xff, 0xc8, 0xb1, 0xfb, 0xff, 0xcc, 0xb1, 0xfb, 0xff, 0xd0, 0xb1, 0xfb, 0xff, 0xd4, 0xb1, 0xfb, 0xff, 0xd8, 0xb1, 0xfb, 0xff, 0xdc, 0xb1, 0xfb, 0xff, 0xe0, 0xb1, 0xfb, 0xff, 0xe4, 0xb1, 0xfb, 0xff, 0xe8, 0xb1, 0xfb, 0xff, 0xec, 0xb1, 0xfb, 0xff, 0xf0, 0xb1, 0xfb, 0xff, 0xf4, 0xb1, 0xfb, 0xff, 0xf8, 0xb1, 0xfb, 0xff, 0xfc, 0xb1, 0xfb, 0xff, 0x00, 0xb2, 0xfb, 0xff, 0x04, 0xb2, 0xfb, 0xff, 0x08, 0xb2, 0xfb, 0xff, 0x0c, 0xb2, 0xfb, 0xff, 0x10, 0xb2, 0xfb, 0xff, 0x14, 0xb2, 0xfb, 0xff, 0x18, 0xb2, 0xfb, 0xff, 0x1c, 0xb2, 0xfb, 0xff, 0x20, 0xb2, 0xfb, 0xff, 0x24, 0xb2, 0xfb, 0xff, 0x28, 0xb2, 0xfb, 0xff, 0x2c, 0xb2, 0xfb, 0xff, 0x30, 0xb2, 0xfb, 0xff, 0x34, 0xb2, 0xfb, 0xff, 0x38, 0xb2, 0xfb, 0xff, 0x3c, 0xb2, 0xfb, 0xff, 0x40, 0xb2, 0xfb, 0xff, 0x44, 0xb2, 0xfb, 0xff, 0x48, 0xb2, 0xfb, 0xff, 0x4c, 0xb2, 0xfb, 0xff, 0x50, 0xb2, 0xfb, 0xff, 0x54, 0xb2, 0xfb, 0xff, 0x58, 0xb2, 0xfb, 0xff, 0x5c, 0xb2, 0xfb, 0xff, 0x60, 0xb2, 0xfb, 0xff, 0x64, 0xb2, 0xfb, 0xff, 0x68, 0xb2, 0xfb, 0xff, 0x6c, 0xb2, 0xfb, 0xff, 0x70, 0xb2, 0xfb, 0xff, 0x74, 0xb2, 0xfb, 0xff, 0x78, 0xb2, 0xfb, 0xff, 0x7c, 0xb2, 0xfb, 0xff, 0x80, 0xb2, 0xfb, 0xff, 0x84, 0xb2, 0xfb, 0xff, 0x88, 0xb2, 0xfb, 0xff, 0x8c, 0xb2, 0xfb, 0xff, 0x90, 0xb2, 0xfb, 0xff, 0x94, 0xb2, 0xfb, 0xff, 0x98, 0xb2, 0xfb, 0xff, 0x9c, 0xb2, 0xfb, 0xff, 0xa0, 0xb2, 0xfb, 0xff, 0xa4, 0xb2, 0xfb, 0xff, 0xa8, 0xb2, 0xfb, 0xff, 0xac, 0xb2, 0xfb, 0xff, 0xb0, 0xb2, 0xfb, 0xff, 0xb4, 0xb2, 0xfb, 0xff, 0xb8, 0xb2, 0xfb, 0xff, 0xbc, 0xb2, 0xfb, 0xff, 0xc0, 0xb2, 0xfb, 0xff, 0xc4, 0xb2, 0xfb, 0xff, 0xc8, 0xb2, 0xfb, 0xff, 0xcc, 0xb2, 0xfb, 0xff, 0xd0, 0xb2, 0xfb, 0xff, 0xd4, 0xb2, 0xfb, 0xff, 0xd8, 0xb2, 0xfb, 0xff, 0xdc, 0xb2, 0xfb, 0xff, 0xe0, 0xb2, 0xfb, 0xff, 0xe4, 0xb2, 0xfb, 0xff, 0xe8, 0xb2, 0xfb, 0xff, 0xec, 0xb2, 0xfb, 0xff, 0xf0, 0xb2, 0xfb, 0xff, 0xf4, 0xb2, 0xfb, 0xff, 0xf8, 0xb2, 0xfb, 0xff, 0xfc, 0xb2, 0xfb, 0xff, 0x00, 0xb3, 0xfb, 0xff, 0x04, 0xb3, 0xfb, 0xff, 0x08, 0xb3, 0xfb, 0xff, 0x0c, 0xb3, 0xfb, 0xff, 0x10, 0xb3, 0xfb, 0xff, 0x14, 0xb3, 0xfb, 0xff, 0x18, 0xb3, 0xfb, 0xff, 0x1c, 0xb3, 0xfb, 0xff, 0x20, 0xb3, 0xfb, 0xff, 0x24, 0xb3, 0xfb, 0xff, 0x28, 0xb3, 0xfb, 0xff, 0x2c, 0xb3, 0xfb, 0xff, 0x30, 0xb3, 0xfb, 0xff, 0x34, 0xb3, 0xfb, 0xff, 0x38, 0xb3, 0xfb, 0xff, 0x3c, 0xb3, 0xfb, 0xff, 0x40, 0xb3, 0xfb, 0xff, 0x44, 0xb3, 0xfb, 0xff, 0x48, 0xb3, 0xfb, 0xff, 0x4c, 0xb3, 0xfb, 0xff, 0x50, 0xb3, 0xfb, 0xff, 0x54, 0xb3, 0xfb, 0xff, 0x58, 0xb3, 0xfb, 0xff, 0x5c, 0xb3, 0xfb, 0xff, 0x60, 0xb3, 0xfb, 0xff, 0x64, 0xb3, 0xfb, 0xff, 0x68, 0xb3, 0xfb, 0xff, 0x6c, 0xb3, 0xfb, 0xff, 0x70, 0xb3, 0xfb, 0xff, 0x74, 0xb3, 0xfb, 0xff, 0x78, 0xb3, 0xfb, 0xff, 0x7c, 0xb3, 0xfb, 0xff, 0x80, 0xb3, 0xfb, 0xff, 0x84, 0xb3, 0xfb, 0xff, 0x88, 0xb3, 0xfb, 0xff, 0x8c, 0xb3, 0xfb, 0xff, 0x90, 0xb3, 0xfb, 0xff, 0x94, 0xb3, 0xfb, 0xff, 0x98, 0xb3, 0xfb, 0xff, 0x9c, 0xb3, 0xfb, 0xff, 0xa0, 0xb3, 0xfb, 0xff, 0xa4, 0xb3, 0xfb, 0xff, 0xa8, 0xb3, 0xfb, 0xff, 0xac, 0xb3, 0xfb, 0xff, 0xb0, 0xb3, 0xfb, 0xff, 0xb4, 0xb3, 0xfb, 0xff, 0xb8, 0xb3, 0xfb, 0xff, 0xbc, 0xb3, 0xfb, 0xff, 0xc0, 0xb3, 0xfb, 0xff, 0xc4, 0xb3, 0xfb, 0xff, 0xc8, 0xb3, 0xfb, 0xff, 0xcc, 0xb3, 0xfb, 0xff, 0xd0, 0xb3, 0xfb, 0xff, 0xd4, 0xb3, 0xfb, 0xff, 0xd8, 0xb3, 0xfb, 0xff, 0xdc, 0xb3, 0xfb, 0xff, 0xe0, 0xb3, 0xfb, 0xff, 0xe4, 0xb3, 0xfb, 0xff, 0xe8, 0xb3, 0xfb, 0xff, 0xec, 0xb3, 0xfb, 0xff, 0xf0, 0xb3, 0xfb, 0xff, 0xf4, 0xb3, 0xfb, 0xff, 0xf8, 0xb3, 0xfb, 0xff, 0xfc, 0xb3, 0xfb, 0xff, 0x00, 0xb4, 0xfb, 0xff, 0x04, 0xb4, 0xfb, 0xff, 0x08, 0xb4, 0xfb, 0xff, 0x0c, 0xb4, 0xfb, 0xff, 0x10, 0xb4, 0xfb, 0xff, 0x14, 0xb4, 0xfb, 0xff, 0x18, 0xb4, 0xfb, 0xff, 0x1c, 0xb4, 0xfb, 0xff, 0x20, 0xb4, 0xfb, 0xff, 0x24, 0xb4, 0xfb, 0xff, 0x28, 0xb4, 0xfb, 0xff, 0x2c, 0xb4, 0xfb, 0xff, 0x30, 0xb4, 0xfb, 0xff, 0x34, 0xb4, 0xfb, 0xff, 0x38, 0xb4, 0xfb, 0xff, 0x3c, 0xb4, 0xfb, 0xff, 0x40, 0xb4, 0xfb, 0xff, 0x44, 0xb4, 0xfb, 0xff, 0x48, 0xb4, 0xfb, 0xff, 0x4c, 0xb4, 0xfb, 0xff, 0x50, 0xb4, 0xfb, 0xff, 0x54, 0xb4, 0xfb, 0xff, 0x58, 0xb4, 0xfb, 0xff, 0x5c, 0xb4, 0xfb, 0xff, 0x60, 0xb4, 0xfb, 0xff, 0x64, 0xb4, 0xfb, 0xff, 0x68, 0xb4, 0xfb, 0xff, 0x6c, 0xb4, 0xfb, 0xff, 0x70, 0xb4, 0xfb, 0xff, 0x74, 0xb4, 0xfb, 0xff, 0x78, 0xb4, 0xfb, 0xff, 0x7c, 0xb4, 0xfb, 0xff, 0x80, 0xb4, 0xfb, 0xff, 0x84, 0xb4, 0xfb, 0xff, 0x88, 0xb4, 0xfb, 0xff, 0x8c, 0xb4, 0xfb, 0xff, 0x90, 0xb4, 0xfb, 0xff, 0x94, 0xb4, 0xfb, 0xff, 0x98, 0xb4, 0xfb, 0xff, 0x9c, 0xb4, 0xfb, 0xff, 0xa0, 0xb4, 0xfb, 0xff, 0xa4, 0xb4, 0xfb, 0xff, 0xa8, 0xb4, 0xfb, 0xff, 0xac, 0xb4, 0xfb, 0xff, 0xb0, 0xb4, 0xfb, 0xff, 0xb4, 0xb4, 0xfb, 0xff, 0xb8, 0xb4, 0xfb, 0xff, 0xbc, 0xb4, 0xfb, 0xff, 0xc0, 0xb4, 0xfb, 0xff, 0xc4, 0xb4, 0xfb, 0xff, 0xc8, 0xb4, 0xfb, 0xff, 0xcc, 0xb4, 0xfb, 0xff, 0xd0, 0xb4, 0xfb, 0xff, 0xd4, 0xb4, 0xfb, 0xff, 0xd8, 0xb4, 0xfb, 0xff, 0xdc, 0xb4, 0xfb, 0xff, 0xe0, 0xb4, 0xfb, 0xff, 0xe4, 0xb4, 0xfb, 0xff, 0xe8, 0xb4, 0xfb, 0xff, 0xec, 0xb4, 0xfb, 0xff, 0xf0, 0xb4, 0xfb, 0xff, 0xf4, 0xb4, 0xfb, 0xff, 0xf8, 0xb4, 0xfb, 0xff, 0xfc, 0xb4, 0xfb, 0xff, 0x00, 0xb5, 0xfb, 0xff, 0x04, 0xb5, 0xfb, 0xff, 0x08, 0xb5, 0xfb, 0xff, 0x0c, 0xb5, 0xfb, 0xff, 0x10, 0xb5, 0xfb, 0xff, 0x14, 0xb5, 0xfb, 0xff, 0x18, 0xb5, 0xfb, 0xff, 0x1c, 0xb5, 0xfb, 0xff, 0x20, 0xb5, 0xfb, 0xff, 0x24, 0xb5, 0xfb, 0xff, 0x28, 0xb5, 0xfb, 0xff, 0x2c, 0xb5, 0xfb, 0xff, 0x30, 0xb5, 0xfb, 0xff, 0x34, 0xb5, 0xfb, 0xff, 0x38, 0xb5, 0xfb, 0xff, 0x3c, 0xb5, 0xfb, 0xff, 0x40, 0xb5, 0xfb, 0xff, 0x44, 0xb5, 0xfb, 0xff, 0x48, 0xb5, 0xfb, 0xff, 0x4c, 0xb5, 0xfb, 0xff, 0x50, 0xb5, 0xfb, 0xff, 0x54, 0xb5, 0xfb, 0xff, 0x58, 0xb5, 0xfb, 0xff, 0x5c, 0xb5, 0xfb, 0xff, 0x60, 0xb5, 0xfb, 0xff, 0x64, 0xb5, 0xfb, 0xff, 0x68, 0xb5, 0xfb, 0xff, 0x6c, 0xb5, 0xfb, 0xff, 0x70, 0xb5, 0xfb, 0xff, 0x74, 0xb5, 0xfb, 0xff, 0x78, 0xb5, 0xfb, 0xff, 0x7c, 0xb5, 0xfb, 0xff, 0x80, 0xb5, 0xfb, 0xff, 0x84, 0xb5, 0xfb, 0xff, 0x88, 0xb5, 0xfb, 0xff, 0x8c, 0xb5, 0xfb, 0xff, 0x90, 0xb5, 0xfb, 0xff, 0x94, 0xb5, 0xfb, 0xff, 0x98, 0xb5, 0xfb, 0xff, 0x9c, 0xb5, 0xfb, 0xff, 0xa0, 0xb5, 0xfb, 0xff, 0xa4, 0xb5, 0xfb, 0xff, 0xa8, 0xb5, 0xfb, 0xff, 0xac, 0xb5, 0xfb, 0xff, 0xb0, 0xb5, 0xfb, 0xff, 0xb4, 0xb5, 0xfb, 0xff, 0xb8, 0xb5, 0xfb, 0xff, 0xbc, 0xb5, 0xfb, 0xff, 0xc0, 0xb5, 0xfb, 0xff, 0xc4, 0xb5, 0xfb, 0xff, 0xc8, 0xb5, 0xfb, 0xff, 0xcc, 0xb5, 0xfb, 0xff, 0xd0, 0xb5, 0xfb, 0xff, 0xd4, 0xb5, 0xfb, 0xff, 0xd8, 0xb5, 0xfb, 0xff, 0xdc, 0xb5, 0xfb, 0xff, 0xe0, 0xb5, 0xfb, 0xff, 0xe4, 0xb5, 0xfb, 0xff, 0xe8, 0xb5, 0xfb, 0xff, 0xec, 0xb5, 0xfb, 0xff, 0xf0, 0xb5, 0xfb, 0xff, 0xf4, 0xb5, 0xfb, 0xff, 0xf8, 0xb5, 0xfb, 0xff, 0xfc, 0xb5, 0xfb, 0xff, 0x00, 0xb6, 0xfb, 0xff, 0x04, 0xb6, 0xfb, 0xff, 0x08, 0xb6, 0xfb, 0xff, 0x0c, 0xb6, 0xfb, 0xff, 0x10, 0xb6, 0xfb, 0xff, 0x14, 0xb6, 0xfb, 0xff, 0x18, 0xb6, 0xfb, 0xff, 0x1c, 0xb6, 0xfb, 0xff, 0x20, 0xb6, 0xfb, 0xff, 0x24, 0xb6, 0xfb, 0xff, 0x28, 0xb6, 0xfb, 0xff, 0x2c, 0xb6, 0xfb, 0xff, 0x30, 0xb6, 0xfb, 0xff, 0x34, 0xb6, 0xfb, 0xff, 0x38, 0xb6, 0xfb, 0xff, 0x3c, 0xb6, 0xfb, 0xff, 0x40, 0xb6, 0xfb, 0xff, 0x44, 0xb6, 0xfb, 0xff, 0x48, 0xb6, 0xfb, 0xff, 0x4c, 0xb6, 0xfb, 0xff, 0x50, 0xb6, 0xfb, 0xff, 0x54, 0xb6, 0xfb, 0xff, 0x58, 0xb6, 0xfb, 0xff, 0x5c, 0xb6, 0xfb, 0xff, 0x60, 0xb6, 0xfb, 0xff, 0x64, 0xb6, 0xfb, 0xff, 0x68, 0xb6, 0xfb, 0xff, 0x6c, 0xb6, 0xfb, 0xff, 0x70, 0xb6, 0xfb, 0xff, 0x74, 0xb6, 0xfb, 0xff, 0x78, 0xb6, 0xfb, 0xff, 0x7c, 0xb6, 0xfb, 0xff, 0x80, 0xb6, 0xfb, 0xff, 0x84, 0xb6, 0xfb, 0xff, 0x88, 0xb6, 0xfb, 0xff, 0x8c, 0xb6, 0xfb, 0xff, 0x90, 0xb6, 0xfb, 0xff, 0x94, 0xb6, 0xfb, 0xff, 0x98, 0xb6, 0xfb, 0xff, 0x9c, 0xb6, 0xfb, 0xff, 0xa0, 0xb6, 0xfb, 0xff, 0xa4, 0xb6, 0xfb, 0xff, 0xa8, 0xb6, 0xfb, 0xff, 0xac, 0xb6, 0xfb, 0xff, 0xb0, 0xb6, 0xfb, 0xff, 0xb4, 0xb6, 0xfb, 0xff, 0xb8, 0xb6, 0xfb, 0xff, 0xbc, 0xb6, 0xfb, 0xff, 0xc0, 0xb6, 0xfb, 0xff, 0xc4, 0xb6, 0xfb, 0xff, 0xc8, 0xb6, 0xfb, 0xff, 0xcc, 0xb6, 0xfb, 0xff, 0xd0, 0xb6, 0xfb, 0xff, 0xd4, 0xb6, 0xfb, 0xff, 0xd8, 0xb6, 0xfb, 0xff, 0xdc, 0xb6, 0xfb, 0xff, 0xe0, 0xb6, 0xfb, 0xff, 0xe4, 0xb6, 0xfb, 0xff, 0xe8, 0xb6, 0xfb, 0xff, 0xec, 0xb6, 0xfb, 0xff, 0xf0, 0xb6, 0xfb, 0xff, 0xf4, 0xb6, 0xfb, 0xff, 0xf8, 0xb6, 0xfb, 0xff, 0xfc, 0xb6, 0xfb, 0xff, 0x00, 0xb7, 0xfb, 0xff, 0x04, 0xb7, 0xfb, 0xff, 0x08, 0xb7, 0xfb, 0xff, 0x0c, 0xb7, 0xfb, 0xff, 0x10, 0xb7, 0xfb, 0xff, 0x14, 0xb7, 0xfb, 0xff, 0x18, 0xb7, 0xfb, 0xff, 0x1c, 0xb7, 0xfb, 0xff, 0x20, 0xb7, 0xfb, 0xff, 0x24, 0xb7, 0xfb, 0xff, 0x28, 0xb7, 0xfb, 0xff, 0x2c, 0xb7, 0xfb, 0xff, 0x30, 0xb7, 0xfb, 0xff, 0x34, 0xb7, 0xfb, 0xff, 0x38, 0xb7, 0xfb, 0xff, 0x3c, 0xb7, 0xfb, 0xff, 0x40, 0xb7, 0xfb, 0xff, 0x44, 0xb7, 0xfb, 0xff, 0x48, 0xb7, 0xfb, 0xff, 0x4c, 0xb7, 0xfb, 0xff, 0x50, 0xb7, 0xfb, 0xff, 0x54, 0xb7, 0xfb, 0xff, 0x58, 0xb7, 0xfb, 0xff, 0x5c, 0xb7, 0xfb, 0xff, 0x60, 0xb7, 0xfb, 0xff, 0x64, 0xb7, 0xfb, 0xff, 0x68, 0xb7, 0xfb, 0xff, 0x6c, 0xb7, 0xfb, 0xff, 0x70, 0xb7, 0xfb, 0xff, 0x74, 0xb7, 0xfb, 0xff, 0x78, 0xb7, 0xfb, 0xff, 0x7c, 0xb7, 0xfb, 0xff, 0x80, 0xb7, 0xfb, 0xff, 0x84, 0xb7, 0xfb, 0xff, 0x88, 0xb7, 0xfb, 0xff, 0x8c, 0xb7, 0xfb, 0xff, 0x90, 0xb7, 0xfb, 0xff, 0x94, 0xb7, 0xfb, 0xff, 0x98, 0xb7, 0xfb, 0xff, 0x9c, 0xb7, 0xfb, 0xff, 0xa0, 0xb7, 0xfb, 0xff, 0xa4, 0xb7, 0xfb, 0xff, 0xa8, 0xb7, 0xfb, 0xff, 0xac, 0xb7, 0xfb, 0xff, 0xb0, 0xb7, 0xfb, 0xff, 0xb4, 0xb7, 0xfb, 0xff, 0xb8, 0xb7, 0xfb, 0xff, 0xbc, 0xb7, 0xfb, 0xff, 0xc0, 0xb7, 0xfb, 0xff, 0xc4, 0xb7, 0xfb, 0xff, 0xc8, 0xb7, 0xfb, 0xff, 0xcc, 0xb7, 0xfb, 0xff, 0xd0, 0xb7, 0xfb, 0xff, 0xd4, 0xb7, 0xfb, 0xff, 0xd8, 0xb7, 0xfb, 0xff, 0xdc, 0xb7, 0xfb, 0xff, 0xe0, 0xb7, 0xfb, 0xff, 0xe4, 0xb7, 0xfb, 0xff, 0xe8, 0xb7, 0xfb, 0xff, 0xec, 0xb7, 0xfb, 0xff, 0xf0, 0xb7, 0xfb, 0xff, 0xf4, 0xb7, 0xfb, 0xff, 0xf8, 0xb7, 0xfb, 0xff, 0xfc, 